45
33
40
2D
C8
26
3C
FA
2E
EA
43
33
EB
32
E0
22
3A
0A
E1
10
45
08
40
CA
FA
D4
C4
CD
F0
DF
24
A6
90
BF
E5
41
2D
07
04
1A
16
4D
4A
24
1C
38
45
47
45
2A
9E
D1
CA
C8
DE
B1
CC
C0
E0
C7
A9
C3
C5
C3
C8
BF
DC
B4
E3
97
E1
EE
B9
BB
86
FB
04
D8
B3
81
E4
93
90
A1
D8
95
C9
BC
FC
50
BD
C5
2F
65
2E
B1
22
3A
1F
DC
49
47
0C
38
34
40
19
51
26
30
D9
0D
EE
F7
DB
A9
AA
B5
D1
B1
F2
D1
DE
C8
FF
30
E8
E9
B0
EB
42
B4
B3
D1
19
E7
A9
D6
EC
44
DF
AE
DD
18
36
C5
B4
FC
0A
4D
