DC
18
1D
1D
F6
EE
1D
39
11
F0
DA
06
1C
1B
CB
FF
25
24
FD
DB
FD
0E
1F
1B
FB
EC
FE
FF
C3
9F
FE
03
E8
BE
F4
ED
D2
DF
DB
02
F4
C8
F1
04
20
0B
F1
10
37
13
FD
D7
F8
1C
09
06
C2
E7
17
EF
EC
B0
E8
1C
F7
F2
BB
FA
0A
11
12
C6
F2
EC
E4
20
12
E6
E9
1A
05
07
FA
05
25
05
22
04
1E
25
DC
EC
17
02
06
C9
C3
EF
13
F8
C8
D2
B5
94
D7
E6
03
D8
A9
DD
09
0D
DF
EC
DF
E9
F9
D3
D8
E0
D5
ED
DD
D6
08
31
01
02
0F
24
12
1E
03
0B
2B
30
1C
28
28
2F
25
31
14
14
1C
13
21
FF
EE
23
EA
0F
09
F4
E9
02
F5
FE
01
05
0E
16
FA
EA
07
E9
04
01
E7
03
F7
F0
FE
05
03
19
0C
08
18
3A
F6
FD
F4
04
0E
E8
03
FF
17
0E
FC
13
12
0D
11
01
34
24
25
06
04
06
09
17
FB
FA
0C
F4
EC
DD
04
01
EB
00
01
07
02
E9
EE
F8
F2
F7
E3
F1
F5
27
24
FE
F0
0E
14
21
10
EF
E1
11
17
0F
EA
CE
E4
FA
18
10
08
F4
FF
1D
0E
28
FB
24
3F
2E
18
E6
19
0A
32
13
F8
FB
03
0A
0D
0A
FE
0C
14
14
1A
09
10
1B
07
FE
EF
CB
A7
C8
08
FA
D5
B5
CD
0E
04
D6
EC
D9
F5
D7
EB
08
01
04
FF
01
26
18
1A
17
04
E4
FC
0D
10
FD
FA
F3
EB
EC
02
FB
FD
ED
DC
E2
0F
FB
CF
C5
DD
0A
F6
D7
0D
18
22
2A
D8
F8
12
39
1C
EA
DA
ED
FB
F1
F7
F2
02
E4
BC
F8
08
0D
FB
FD
E6
FE
E3
E1
E5
01
DC
D1
D1
B9
0D
E7
F3
E4
C8
FB
F4
14
FF
ED
07
0F
00
DA
F8
F4
EA
D7
F0
F4
F1
F7
06
F6
F4
06
12
15
F1
F8
35
13
1C
29
FF
33
3A
47
18
FB
16
09
14
0A
03
09
34
36
2D
37
FD
17
2A
2A
23
06
17
1A
12
1B
0C
29
11
1C
05
E7
E3
D0
D0
EB
15
FE
F1
CE
F7
05
0F
F6
F9
0E
25
25
1E
39
2B
35
27
2F
36
56
1A
28
24
04
0D
25
24
FE
FF
06
21
22
E8
E8
04
0E
F9
E6
E4
F1
05
0B
ED
00
04
11
0C
EF
CF
03
DF
BD
C9
F7
F4
B3
F5
25
1B
F8
D8
15
32
10
E6
02
25
0D
F7
EF
F6
F0
E5
06
F5
E4
CD
1F
26
F6
DA
DC
19
19
F6
E7
E7
EF
E0
05
0E
0A
0A
09
FD
3B
41
3F
09
F5
16
0F
11
FD
0C
D5
CD
07
15
16
D0
EC
FE
1C
FF
E5
FA
20
F0
D4
DB
09
25
0D
18
D1
DB
F4
16
F4
C5
CA
F5
FA
DF
CF
10
22
0B
DE
FD
18
FF
04
DA
37
1B
14
F1
17
32
65
1B
16
1F
1E
1D
F4
F3
16
FE
DC
F9
1C
23
0A
F8
00
2F
25
E5
00
1B
FA
02
EC
1E
14
FF
D9
03
1F
19
F2
E0
0C
19
12
D6
B8
0F
03
DB
CE
AB
07
F7
0D
10
0F
15
07
15
1D
10
FC
FB
EA
FC
DF
E6
F1
05
0A
F6
FC
26
14
FF
F8
15
16
21
05
EE
02
F2
F1
ED
FF
E3
F8
ED
EA
12
E3
FE
F4
11
F9
FA
F3
16
05
2D
06
F2
0E
1D
0E
05
FA
1B
17
F0
FE
07
2E
F2
CE
E8
F6
01
E8
E5
D8
08
FE
D4
DE
A0
C6
FD
0F
32
B3
05
24
47
2F
DC
19
1C
3C
23
01
31
3D
2C
2B
1F
2B
27
17
F9
03
02
16
FC
DE
FF
0E
07
D1
E8
F6
15
EE
DF
E8
F4
EB
DC
D5
D3
F3
D5
D7
D1
D2
F0
E1
EE
06
09
F3
08
05
FF
FE
1C
11
F9
10
F1
2F
27
12
F5
FA
41
21
05
01
ED
14
1F
10
08
00
2E
08
0B
01
FC
0D
F7
01
E6
13
FB
F9
F7
1A
18
12
1C
37
49
57
14
13
12
09
F8
0F
F8
09
0B
1F
0A
F7
15
12
0E
0F
F9
F9
EA
D3
0F
1D
E6
C6
BD
16
FD
04
14
08
13
20
28
21
12
0E
F2
05
09
F8
F5
E1
C4
EC
1C
D6
CA
DF
F0
18
D6
FA
FF
05
03
D7
D7
D7
F0
EA
C7
D6
E6
BC
C3
AD
DF
CE
DF
DB
E7
E5
12
1B
27
F1
F4
18
24
15
14
16
14
29
06
1F
1C
2B
23
2A
15
16
0E
04
18
CA
C0
81
BE
CF
1C
0F
20
E5
D8
18
06
F5
EF
E2
FF
F2
F3
E9
03
F3
F4
FB
FC
07
FE
1D
16
0D
05
ED
DF
F9
11
1B
DD
E8
FB
14
38
EA
1B
2B
2A
2C
EA
F6
00
0B
19
00
F4
19
F6
08
EF
04
1B
14
25
0B
0F
21
2A
25
1D
0F
09
1F
17
09
F9
0D
EF
03
07
F3
E3
F5
01
FF
ED
06
F2
03
E5
E0
05
07
08
09
0D
0B
12
11
11
03
13
1F
2C
2A
18
35
1C
05
03
02
FF
E9
ED
07
00
E9
E1
CB
05
00
F3
E6
01
D6
F1
0A
07
EC
DF
FF
FE
CD
DC
FB
FE
10
11
1D
DB
D4
EE
E6
F4
F3
D5
00
FC
09
F2
09
10
15
04
14
38
37
26
1D
D9
F2
0F
1E
13
E7
EC
1F
08
FD
D5
F7
1E
02
D4
EF
27
1C
1C
CB
21
2E
24
0D
BF
E1
E3
E0
D5
B5
F3
07
F9
F4
09
15
08
EE
FB
06
10
06
D4
F8
12
E9
B0
D2
F8
E2
F8
11
E8
06
0A
09
03
E6
E3
0B
0F
02
D1
C7
F6
EB
F1
EE
EF
E7
CE
BF
EC
ED
F1
03
12
19
35
2E
07
0D
19
25
FF
FC
FE
13
20
F4
13
0E
2E
EB
E4
08
01
07
0B
F8
0B
EF
E8
00
30
FF
E2
FB
F3
2A
DF
F3
FB
14
05
F9
E0
0A
13
2C
DA
E4
E9
1D
0A
22
2F
30
3C
21
14
25
3F
0A
F8
F7
1C
21
CC
ED
0E
0D
F8
CC
EA
54
40
19
04
FF
F8
DA
D8
F4
05
11
FF
DA
F4
0E
F0
D7
E0
02
F4
F9
EA
E0
F2
E2
E3
EF
E2
E0
D8
18
0E
1A
27
18
03
EE
06
04
E7
00
04
0D
0D
E7
0B
19
39
20
FB
FF
1B
0D
FA
0B
D1
E6
E4
D4
EB
DE
E4
E2
DA
F8
F7
F4
E0
0D
0D
1A
0E
02
FC
3F
F4
02
04
09
33
15
0F
26
35
42
F2
0E
0E
36
3A
E4
0D
06
1C
06
09
0C
0C
2A
10
0D
21
1F
11
20
1F
10
F8
29
31
06
FE
00
1D
12
1B
03
36
1B
23
17
25
18
2D
27
0A
0B
2C
01
E5
E0
23
42
40
35
F5
26
46
59
26
E5
07
16
EF
DB
F9
F6
F5
EB
E9
FA
FF
F8
EB
E7
18
1F
10
17
05
20
0A
04
01
FC
0A
F1
F6
F3
F9
03
E6
E6
05
FF
FC
E7
FB
FC
E0
05
ED
FA
0A
1B
E4
F1
FC
1B
FA
CC
21
28
09
F3
0B
31
20
0A
10
13
3B
1D
19
12
C9
CD
DA
BF
FF
AA
BF
E9
C4
D8
C1
FA
E9
C7
F2
E1
FB
D3
EA
31
F5
F0
DE
10
21
10
1D
19
0F
14
16
F8
09
11
EE
D8
CE
07
1E
02
A9
FD
19
3B
3F
C9
F5
0C
12
3D
EF
17
1C
06
0D
E4
07
FD
02
FD
E8
FB
EC
03
FD
F3
10
22
0A
1E
EF
2B
2C
36
3F
3C
2C
29
05
08
17
1B
03
12
0A
F4
D9
FB
15
48
D9
BD
F9
0B
21
B2
AD
DC
EA
17
E4
05
0B
1A
11
D7
F8
13
07
08
D5
05
24
25
E7
07
0A
01
FF
A1
1A
F6
07
FD
B9
2A
17
04
FB
D6
F5
E8
EA
D0
C9
D8
EF
E5
01
D4
DF
DE
F4
00
C3
FA
AA
BF
E7
BA
E2
D7
09
1C
F3
0E
F1
CC
23
EF
0E
CF
D6
06
FC
1A
D9
01
1B
02
FF
02
11
FA
20
FA
F1
F5
14
FA
06
0E
F6
16
F9
16
F5
E8
E5
04
F0
FF
E0
FB
08
FC
FB
ED
F5
E8
4B
2E
10
F9
1C
0F
EC
F0
14
17
DB
F5
F4
06
07
DE
F4
18
00
DE
04
01
1A
ED
C6
DC
EF
F4
12
06
2C
2D
2D
F3
0E
47
2E
0F
FD
F7
24
2E
13
F1
F6
03
10
15
21
03
F9
FF
FA
FF
F6
F7
06
FD
06
03
05
EA
FE
D2
F0
0D
03
FA
F8
10
F5
ED
F9
E5
03
10
23
06
04
F1
15
E9
F1
F8
2B
03
EF
27
29
29
08
03
1A
FF
01
E3
1D
26
1F
2B
0A
03
DC
F9
EB
F3
DD
DC
1C
F6
01
DB
02
F2
E3
EA
FD
D6
CD
E3
0D
01
F5
F6
1C
03
23
40
16
D5
22
1D
F9
18
1B
07
20
3A
35
3D
07
01
22
32
35
E4
09
28
34
3C
11
06
0C
36
23
04
12
16
11
FD
1F
FA
F4
11
25
18
15
00
23
31
F0
E7
14
FD
13
02
1C
09
FA
E2
03
0B
09
1D
F1
22
0C
FE
F8
06
F7
F3
F9
ED
F8
D8
E7
0A
F0
0D
2D
1E
11
05
24
18
20
18
1A
1A
22
15
1C
1F
F5
11
0D
07
11
12
FF
18
FF
F9
F1
19
1D
06
0E
0E
04
FA
FA
01
EC
1A
12
F8
F6
01
03
ED
FF
0D
0F
DE
F6
02
1B
EF
F0
E8
EE
D7
F1
F2
EA
C6
CF
EF
04
EF
D2
07
ED
FC
05
14
01
0B
23
12
14
02
0F
1F
2D
FA
05
F6
FF
1C
1D
0F
E7
01
1A
09
1B
10
17
F7
FF
2A
15
DA
EF
03
F3
05
F4
FF
F3
14
10
F2
ED
E3
00
FF
06
F7
04
FC
19
19
1B
FC
25
1C
15
12
0E
0B
27
02
F9
09
07
E4
06
EF
F7
10
26
F6
F1
C6
05
11
F1
E5
C8
DB
CF
E9
B5
9A
A9
D3
C5
FF
F9
FA
1D
F0
DC
EE
02
1D
DB
D9
03
1E
2F
E1
D0
EE
11
2B
CE
F4
15
0E
1B
06
10
0D
10
18
11
19
08
19
10
07
11
15
08
F8
38
23
09
03
D5
0F
15
07
06
CA
0D
09
FB
D4
D6
F6
0C
E5
C0
E4
0D
FE
ED
AB
E8
0E
09
C6
99
CE
22
12
C7
B3
D9
3B
1F
E0
CF
E3
5B
00
EB
C9
C6
1F
1D
FB
EE
EB
4A
39
31
07
F4
1F
31
47
15
E2
24
2C
37
0B
C9
3B
32
2C
F9
C6
41
29
EC
C8
CA
34
0E
FE
DF
D7
1A
0B
14
F4
DF
21
F7
F0
D9
D8
ED
D7
D6
EB
E1
D3
F6
03
10
FD
FE
04
13
56
0E
FD
09
3B
43
03
F9
0C
11
00
04
FD
F8
06
F5
F2
C9
E8
D9
CD
E6
D2
DA
D3
EA
0C
EF
F8
0E
04
18
F9
E4
F5
E0
F5
D6
DE
A9
DB
D2
46
3F
0D
1E
0A
17
2A
20
1E
21
0D
2A
23
18
10
05
F3
E3
F6
DD
F0
0A
F2
09
FD
12
F7
01
23
0A
F6
0A
1E
26
0C
08
FB
0B
F8
03
FF
FE
EE
F9
E9
D7
E8
0B
0C
DC
19
12
0E
07
11
2B
17
0B
EA
23
2A
FD
F8
08
EC
0B
04
FB
0B
10
18
2B
28
16
F7
45
3D
18
00
FD
1D
17
E6
FE
FB
02
F1
F6
01
1F
FA
EF
E7
F0
0B
DB
DA
10
14
F2
D9
FA
F1
F5
FB
07
17
01
E9
DB
05
E8
E2
B6
CF
FF
18
09
10
2C
EE
F9
08
10
0E
D1
E9
EB
FF
09
EE
E5
06
F6
04
12
05
EA
10
FE
CA
FA
F3
0A
1C
02
F1
EE
01
F4
3A
06
00
E7
F5
39
2A
34
21
01
0A
20
1B
28
28
E7
E1
E6
F2
04
12
0F
04
EA
09
FE
F5
EF
0C
21
ED
D4
F4
06
1B
D4
DB
EC
F3
12
EA
E4
03
FC
01
D6
B8
C9
ED
0B
F2
DB
EE
0C
0D
F0
0D
08
0A
04
EA
EF
26
18
40
0D
27
0F
F9
F8
01
F2
D1
E7
F5
DD
21
01
1B
21
E2
FE
20
27
F9
FF
2E
24
21
1E
FF
11
2B
47
39
F6
F3
12
42
2F
DF
E2
05
20
21
01
F2
09
1F
1E
ED
EC
14
08
18
