23
06
FA
F4
EE
F4
F1
FC
C9
F5
15
0F
E2
C1
F1
E8
EF
F4
20
2E
FF
FF
FB
1D
FF
12
1C
13
FB
04
0A
15
F3
F9
1E
ED
F1
E1
0D
0B
D2
09
F8
11
0A
16
15
1C
2C
40
07
E9
03
0D
E6
D3
06
F9
02
EA
DD
D2
E0
EF
12
30
26
0C
F8
14
02
F0
05
04
FE
11
DA
05
FF
F3
DF
EA
E4
01
FB
11
12
11
0D
1A
0D
17
0A
23
23
40
0E
2A
12
18
1A
1D
0F
11
FA
03
F2
04
E3
E9
F7
0B
FD
14
33
03
1A
15
0E
F2
21
18
0C
09
D3
F0
DF
DF
03
21
2D
21
E9
EF
0B
0A
14
EC
EC
F7
FC
00
0B
E8
F9
2C
35
17
FC
FD
00
E9
0C
27
11
FC
26
34
25
F9
F8
FA
15
F8
F7
D8
EE
F9
FD
81
B7
0B
CB
F2
F4
ED
F2
00
16
1D
EC
F5
10
05
F7
19
F7
F1
0D
09
FE
FC
D8
0F
00
E1
F1
F4
F5
EE
FF
07
09
08
17
2C
18
1D
05
F7
E2
D7
E9
F5
12
03
F0
FB
F1
E9
D1
E7
CF
C9
EF
FA
F5
30
E4
FF
F2
10
DB
F2
F4
0F
09
04
0D
02
17
0F
FD
0B
FA
FC
1D
FB
0A
F3
FA
E5
E6
F1
EB
07
E9
ED
BD
C6
E9
F2
FE
E9
F8
F8
0D
F4
19
22
11
14
01
0A
15
0E
F5
1C
0F
22
EE
06
14
13
26
17
16
F7
B1
F0
EC
16
D5
FD
19
08
0E
08
FC
05
FE
0B
EE
D9
4F
22
12
FF
39
23
04
E9
49
22
14
07
06
FF
F1
F6
17
F1
05
15
08
0C
FD
F8
F5
14
E0
D7
F2
F5
0F
0D
FB
ED
EE
0F
2D
29
1E
FB
1D
08
ED
CC
27
41
21
E9
05
15
0F
FC
F9
FB
00
ED
FB
0C
09
26
0F
0E
1E
17
16
F9
0F
DC
00
FC
F4
E5
11
EA
F4
CE
09
E5
BE
C0
0E
F6
09
1B
E8
F9
04
0C
01
F6
0E
11
02
08
14
07
FD
20
11
14
07
27
1D
0D
FC
0A
17
0D
1A
23
29
18
DD
C0
C2
10
A7
E1
CC
19
E9
00
08
2E
F1
CC
E4
00
0B
05
1B
33
F9
07
0F
19
05
04
FD
E8
FF
12
0F
09
11
20
18
F9
F4
EC
05
FF
EC
F4
0B
DE
ED
05
09
0A
E2
06
E2
DC
04
FF
FB
F8
16
19
03
03
F3
FE
18
22
E1
F6
E0
02
D8
F6
EC
E2
EB
F8
F7
FA
CE
E8
03
28
CC
EA
12
0F
E5
0F
F8
14
FB
15
0A
01
0C
1A
28
2A
16
19
D8
ED
15
13
F0
13
04
14
EF
1A
34
1E
F0
E1
F6
FF
02
F8
FD
08
08
FD
02
E0
EC
E8
F5
F9
F6
EF
D5
E3
C9
2F
D9
FD
02
1F
E1
F0
F8
F5
03
09
E7
CC
23
19
FA
FC
43
17
05
20
54
41
19
1C
70
1D
E6
0C
23
FB
0C
F7
17
15
EA
FC
3A
37
0E
05
06
11
F7
14
12
00
03
10
1F
04
0D
F7
0D
01
F3
F0
2A
27
08
D5
03
22
03
07
FD
04
06
07
1F
1C
04
1F
05
F3
1A
14
16
19
FF
0F
04
0B
19
0A
20
0F
F7
E8
02
E1
C1
CC
F1
17
EE
08
D6
DF
F4
F3
FC
DE
02
21
F1
07
1A
34
ED
15
16
F4
08
0D
2C
FD
EF
11
10
0E
14
12
39
07
1A
D2
90
F1
B9
E6
DA
21
BB
F9
04
0B
E0
CF
C9
04
06
F2
F7
FE
F6
03
F2
0B
EA
E0
F3
FC
F4
11
14
03
1B
10
1A
05
09
10
12
FB
1D
EE
F3
F9
12
E1
05
E1
F3
EF
F6
00
0F
1A
10
1E
22
24
0B
00
EF
F2
DD
02
E7
FB
F5
EB
E3
FB
E3
DC
DB
D4
ED
E4
AE
CA
F6
0B
F2
F5
F6
F9
CB
0A
F1
04
D9
F1
15
12
F4
0B
FE
1B
4C
17
CD
BE
0B
0D
19
F9
16
20
25
F6
03
F8
09
26
FB
0C
F7
12
07
0B
F9
1D
0A
03
F6
0F
F0
DB
E3
F7
E9
EE
F7
BF
FE
FB
F3
FA
00
E7
FD
E5
03
E7
F9
EB
2D
19
24
CD
2A
22
05
DC
1F
09
1B
09
14
43
14
1F
13
0A
2B
2B
0B
08
1A
0E
F1
14
0D
05
F9
E9
FB
FC
03
01
F4
0B
23
10
07
31
0D
02
F7
09
C1
AE
BF
04
04
25
2E
2A
0F
0A
1F
13
0C
F2
29
0B
00
00
08
F4
0D
28
02
17
24
23
13
16
1B
1E
04
04
16
FC
3D
14
E4
0C
1C
3D
E1
FA
01
0B
EE
05
03
FA
EA
FA
F2
CE
14
20
12
EA
1B
12
01
EA
04
F6
F9
FF
FA
D8
E9
08
CA
EF
CE
BB
C8
13
F7
08
D8
CB
C9
0A
E0
1A
27
F6
EE
0B
06
18
F4
0B
1F
FD
F9
0F
0A
FC
DE
E4
E2
D5
FB
01
E1
DF
F8
10
14
FB
07
FD
F8
0C
F0
06
EA
02
F1
C6
DA
9F
FF
F1
F5
F3
04
08
13
0F
26
0B
17
1A
EE
F4
31
49
D3
FC
FB
12
03
08
08
F3
01
F2
E5
E4
F7
FD
14
FB
10
F3
0B
E7
22
12
EC
FB
01
09
F5
CE
3A
17
21
4D
0B
12
0B
11
21
14
FD
0F
DD
F5
E0
DF
EC
DB
E3
CE
E3
E5
E6
E4
04
01
0C
F5
E9
06
F4
0F
DF
F3
F7
FF
E8
06
FD
F1
F5
28
17
07
E8
20
0A
11
2E
03
15
0D
19
FA
FA
09
2A
34
2B
FD
25
23
00
0D
0A
2A
05
F9
1A
18
02
0A
1B
07
08
1E
0A
EE
EC
F7
15
0F
15
FF
08
19
11
16
19
0D
FD
F9
06
EA
F9
04
15
13
19
01
0E
12
11
E8
FC
F9
FA
F2
F1
E6
01
E0
0C
19
24
1A
23
1F
04
18
1C
27
1B
1D
0F
04
F5
08
16
15
28
10
0C
F8
FC
01
FF
F1
16
18
F4
E8
0D
14
10
2C
1F
FF
1B
0C
2B
10
1A
0E
2D
03
21
11
13
06
F4
E3
BE
F2
E3
DC
01
E7
CB
F2
11
C5
EC
22
0A
00
EE
F5
E8
FE
28
15
18
0D
00
FC
09
2A
ED
F3
03
31
E6
E3
CD
F1
0B
F3
04
05
1D
08
2B
1D
0C
01
1B
14
06
0A
FA
33
14
07
FF
18
FC
0D
EE
00
D4
DB
E9
D9
E6
DC
D9
DB
EB
E9
F9
01
ED
E7
EE
14
03
E6
02
D9
19
09
10
F2
1B
FF
0B
F8
D0
D6
ED
15
B9
C6
F5
04
1E
0F
0D
05
21
F8
ED
F3
E8
E6
DB
EA
E2
E7
FB
CA
08
FD
E8
E6
0F
F9
F3
F4
F6
09
F5
02
0C
2D
13
06
E6
E8
FA
DC
F9
EC
FE
0C
04
E0
F2
2B
F6
16
0C
F1
0F
FA
FA
33
EB
FE
F2
13
F8
0C
EC
FE
1A
D2
FD
DC
E1
E1
FA
E2
F6
10
16
EC
1A
0D
13
F5
F4
FD
DC
E1
DF
E0
E0
D3
1E
21
F5
EB
FF
0B
FA
FB
3E
3E
29
19
10
02
FF
17
0E
18
FE
0B
0D
FE
07
17
0A
06
03
02
FA
05
F9
18
F5
D8
F3
F6
0D
04
01
F6
DA
D9
D2
C2
10
0E
1C
17
F7
06
0F
26
04
F9
FA
18
FF
F2
04
1C
00
14
16
2E
F2
02
0D
14
09
FD
13
FA
14
38
34
F7
F1
E6
FF
FE
F5
F0
CF
EC
11
EE
F9
2E
E7
CA
D5
28
EC
FD
0E
0A
FB
0C
0C
04
FA
05
01
F3
1F
11
1F
05
EC
E6
F0
ED
03
FA
09
FA
26
0C
ED
D3
28
0C
F9
E4
1F
20
26
17
1C
01
10
E9
31
0D
FC
D3
EF
FA
F7
C8
F5
D0
E9
D8
14
EB
F8
E4
F8
FF
F0
EE
F7
E8
DD
F8
12
06
18
23
0E
14
10
13
03
FD
0E
14
E3
02
01
E2
1D
07
06
FE
27
18
15
2C
26
28
11
1C
24
1B
ED
0E
EF
FB
F6
F3
05
FA
FB
0E
02
F4
FB
E6
0E
E5
03
ED
04
05
E3
E9
24
11
13
03
29
14
02
01
0F
FA
FB
F0
05
03
FF
05
FF
05
21
26
20
0F
0B
16
14
35
27
05
06
19
FB
16
22
1F
03
2B
09
14
07
0D
06
05
19
26
3C
09
08
0B
35
25
1C
11
15
0D
FF
04
B5
C6
CD
D4
01
F4
03
01
FD
08
FB
0E
08
06
06
02
02
F9
E1
01
FE
04
FA
FF
07
08
24
20
22
16
F8
1C
40
06
25
3B
F3
F4
09
22
FC
EC
05
32
F9
09
FB
1C
FB
F1
FC
F5
F6
04
07
09
F5
08
1C
11
F0
02
0F
04
F3
CD
DB
F8
C0
F7
E4
E2
D3
F0
20
21
C8
FF
35
10
04
0F
4B
0E
EA
FC
F3
28
0E
07
F2
0D
04
F3
FF
00
FC
F3
EC
E3
14
F7
06
2D
07
13
F6
22
13
15
03
0D
03
D2
DE
F5
CF
E5
DB
F2
02
ED
00
FE
02
F7
0A
1E
35
26
24
48
D5
05
18
FD
05
F4
1C
DF
1C
03
1E
00
06
F9
E1
EB
ED
03
FD
EF
11
03
FF
FE
1C
00
0B
02
F5
03
0C
05
FF
29
37
23
24
02
1B
23
F4
05
06
14
FD
10
06
13
00
D1
C3
E1
F9
ED
EA
D3
00
18
F6
F3
01
E1
EF
E8
29
11
09
17
2F
12
06
E4
0C
1A
0D
2B
14
F2
16
22
C9
E3
F0
16
B1
C5
00
1C
C5
DE
00
17
DB
FD
01
06
FB
14
00
0D
FA
18
0C
03
FB
F8
0B
1E
1F
14
14
24
07
FC
1C
13
F1
08
FB
FF
11
1D
40
27
DF
F3
12
05
12
FB
04
FB
FE
09
E5
0E
EF
F9
00
FE
F7
06
E4
FD
DE
09
F9
11
12
EF
10
21
FE
0B
01
1F
11
20
0B
34
03
00
00
F1
22
20
06
02
16
0C
26
09
22
0D
0D
0F
EC
D4
D9
0A
FC
E0
D3
FE
F6
E5
D8
0B
F0
F2
D7
E2
23
39
06
F2
45
1A
1A
10
28
23
24
03
47
11
48
18
03
E1
D6
F9
11
03
FC
DE
18
FC
E7
02
FA
F7
FC
FB
E4
07
F9
20
0D
16
09
12
10
18
FD
14
25
FA
F5
12
0C
FE
06
45
FE
EC
0D
0A
FC
F2
F5
03
12
20
F8
E9
14
01
10
E5
30
2C
32
06
16
24
21
32
1C
FC
0F
ED
29
11
F3
EE
2D
F0
0A
E8
3B
1A
0F
EB
0C
ED
FC
19
1B
12
E9
D0
DF
E6
ED
E1
E5
F2
F0
E1
14
EC
E6
E4
01
1B
08
1E
F7
FF
FB
11
F2
12
10
19
F6
36
1E
17
05
2A
2F
05
00
F8
FC
25
01
ED
08
27
18
1E
37
1C
14
26
19
E8
E1
00
E0
D7
EA
EA
EB
EE
EF
B9
D9
D6
FE
1B
04
F1
04
F0
F1
ED
0F
FA
F5
EA
15
F8
04
11
F1
F9
FB
E4
EA
F4
19
F8
E3
E7
0D
FB
1E
1F
2A
40
F9
F2
0C
10
E3
F9
F1
FD
EE
EB
FD
FB
E4
1E
28
16
25
13
ED
F4
F9
CE
C8
D1
EC
CB
F0
C9
B3
BD
BC
D4
1A
03
04
08
1E
12
1F
03
FC
1B
07
0B
09
39
25
26
07
1B
F9
F9
FE
FF
E7
F7
1F
00
08
0C
13
31
36
19
0F
02
30
41
F4
FE
02
1E
00
CF
14
15
FB
B8
B4
CB
0C
07
04
06
0B
FF
FE
EF
F8
F5
F8
E7
0B
34
28
0C
0C
1B
2A
0C
0D
1B
12
D1
F3
F0
0D
D7
06
18
25
FB
32
1A
12
E5
F8
F4
00
C7
E2
F9
01
D8
C4
DF
F6
F1
FE
17
04
2E
03
E2
F4
FC
F9
25
FE
E6
07
2B
15
42
E9
07
0B
06
0A
00
15
03
1F
13
06
0C
20
1C
27
1D
F9
EC
18
12
22
23
13
1B
03
22
05
17
16
12
F5
D4
04
FE
EF
F8
13
13
0C
0C
F4
F4
FC
F8
F4
E5
F9
01
4F
3D
2B
63
E3
EC
F8
0B
CD
00
0B
F4
FD
08
FE
FB
CC
D0
F7
E5
14
09
11
18
2E
11
0A
0E
2D
08
00
0A
1A
06
F6
F5
21
17
E2
E4
25
0B
05
02
F8
15
0A
2D
00
04
1B
1D
F8
F9
FE
1D
F2
E5
F9
06
F6
08
06
E9
00
FE
0C
F9
18
0C
12
03
ED
0D
DE
03
01
10
02
0F
1A
FD
12
20
32
23
21
13
FF
FC
18
0B
FD
05
EE
05
04
08
EF
C2
EE
F8
EA
C5
FA
F9
15
0E
E7
FE
0D
36
F4
C8
C2
C1
0A
F2
F1
FC
1F
2A
12
07
1B
26
10
FD
69
37
20
2D
2E
17
06
33
11
EC
FD
EE
0F
FF
04
0E
1F
06
F5
EA
14
0A
EF
F4
0C
F9
F8
FD
FD
FD
07
05
11
1C
15
F8
04
11
F5
14
08
F9
06
23
FB
1A
09
27
05
F7
09
2B
10
00
F2
2E
02
FD
FE
12
D4
F5
CA
A5
14
24
36
2F
19
0E
0A
0E
ED
EF
F6
10
F3
F8
15
27
2E
31
03
FB
0F
0B
1C
2F
F9
00
F0
23
E4
E0
E8
1C
C7
F6
29
02
05
06
20
FB
13
05
16
EF
FB
0A
31
1D
0E
1B
24
FE
02
0D
18
02
ED
F6
F4
E9
04
06
0F
F2
36
38
6B
58
DC
CB
EC
07
C8
DF
E0
D9
F1
ED
E8
F7
E8
DF
E8
15
03
19
0B
01
E6
02
14
06
D2
15
23
12
E3
DA
11
1E
DC
E9
0B
09
CA
F2
14
FC
11
12
04
FA
E1
1A
FE
08
D6
DF
EF
E6
E3
F5
D1
C7
0B
E7
08
05
1C
EE
07
F4
12
FD
0E
1A
FB
13
18
1D
1D
14
11
FD
FA
19
FE
F0
1F
25
18
EA
09
18
0F
EB
F6
1E
1E
F9
20
2B
0B
C1
0F
15
0D
E9
F6
11
F7
F8
1E
0C
F0
F3
EB
CF
C4
E2
00
F2
F1
0E
F1
06
F4
FD
EF
03
F6
EA
25
4C
74
4D
2E
21
31
0C
29
F1
E6
F9
ED
F0
08
E2
1F
34
04
C8
EC
03
1C
E9
EC
F4
14
08
FF
04
F8
FE
EF
F6
1C
F8
EE
FC
08
FA
FB
FB
FE
FB
0C
11
FD
04
FA
1D
51
5F
E8
12
26
3A
F1
F2
0D
F4
02
FA
01
F2
21
24
1E
0E
17
19
08
3A
F9
10
0D
FD
FA
2D
17
1B
F6
F0
28
04
0B
05
F2
F1
EB
00
E5
EB
13
0F
E5
ED
17
FC
27
0B
08
2F
00
F9
19
0F
FA
E2
32
21
16
08
FB
00
F0
FA
03
0F
14
11
0B
E5
F2
00
DB
EF
ED
DA
3C
35
21
FB
26
30
10
1C
0B
20
17
1F
FB
F9
02
0A
BF
BA
E5
E3
DE
0F
F1
F3
E0
0D
FA
F9
D3
EC
03
0B
E1
0A
2D
13
07
28
17
18
FF
09
16
01
F7
07
09
00
05
20
06
03
D6
E9
F6
0F
9E
AE
E1
01
D3
CE
EF
FA
07
FE
0C
03
F6
16
07
07
09
F6
FA
FF
F9
10
0F
F0
F4
1F
1B
11
0E
24
3A
13
F5
26
24
F8
FA
23
08
29
E0
F8
1F
26
F6
13
16
0F
1E
20
11
01
18
1F
FD
07
06
F5
F8
EF
F9
F9
CE
E8
15
08
03
EE
E2
F4
DC
F1
4A
45
01
01
32
28
1B
36
5E
02
04
22
26
FB
14
16
08
F2
0B
1D
05
EF
0B
02
FC
06
F0
E9
0F
06
0E
EF
E2
02
EA
FA
FA
F3
FF
FC
E6
F1
E6
EC
BC
EF
FC
D7
04
DC
C7
C6
20
EB
E0
B0
F3
F8
02
18
EB
11
25
2C
FA
08
22
2D
12
24
15
0A
15
FA
F6
1E
1E
0D
F5
1B
12
22
0C
08
28
19
04
02
2C
FA
F6
20
2A
28
06
26
C9
C2
C2
E9
F0
FD
FA
05
F2
F4
FC
FB
EB
E7
11
25
44
30
26
2D
23
19
0C
1D
21
0B
F8
03
05
00
F2
F6
35
26
32
FD
19
10
08
F4
20
17
09
F2
F5
0B
FD
DB
15
FC
E2
F8
11
1D
0B
0A
0D
25
09
08
27
2C
13
12
11
F3
05
03
E6
FB
04
FB
09
FE
16
17
07
FB
01
FE
1B
01
09
06
13
09
F4
F8
EC
EE
F9
FB
C7
E5
D0
E9
0C
F7
FD
13
F4
EB
1A
0E
0A
15
17
13
38
04
F8
1A
00
F5
E3
CF
E4
00
1A
F4
1C
0F
1F
26
43
2C
22
26
1D
0B
04
FF
F0
07
0C
18
F9
E6
F6
08
03
F5
EF
E2
0F
0A
09
10
12
02
10
1E
FB
F1
02
07
E8
E7
00
22
C5
20
1A
3F
FB
30
1A
05
F3
EF
EA
DC
BB
E9
F8
EB
1C
20
27
1C
F0
1B
05
1A
1C
24
1B
06
0C
13
06
DC
15
08
FB
FD
00
FE
FB
17
02
04
0B
06
DE
FF
FD
01
F1
10
FF
FC
01
18
1D
1D
1A
19
0F
1E
3A
20
41
28
11
19
03
EE
14
0F
06
07
1C
11
08
E4
14
FE
FB
E7
07
19
FC
23
F3
0A
14
1C
04
F1
10
F4
FB
EE
FF
14
CD
F2
F2
EC
E6
1A
EA
F4
C7
F6
EA
0A
DB
07
04
F5
05
1D
01
EC
0E
FD
F0
D4
F4
1B
FE
F2
F9
13
01
25
4E
14
11
2E
E9
03
E3
FE
F1
F8
02
21
DD
02
08
2D
EC
FB
ED
F7
BF
E5
1B
00
E2
EB
08
0B
08
13
0B
11
F2
E4
EF
EB
DA
01
FF
F3
1D
06
1D
0B
2C
14
08
DF
0B
02
FE
07
E8
FD
F9
13
03
05
0E
02
13
19
23
2E
03
0C
FA
04
F7
20
1D
F5
02
2D
13
10
13
19
0C
F3
ED
F0
F6
DB
EB
06
0B
06
FE
F0
F6
14
0A
03
EE
CD
15
03
D2
D2
08
01
F0
05
0C
0B
09
2B
05
04
0B
28
C5
CE
ED
08
ED
E5
F3
15
01
EA
FB
F5
F1
0C
24
FB
E7
17
2D
0D
10
20
FE
FC
0E
14
E6
EB
BC
D9
C1
C7
F3
0D
F3
DB
F8
EB
F9
F6
0F
0E
F3
F9
17
FE
FE
06
EE
07
F4
FC
F2
F0
F6
F4
10
1B
F5
F7
1C
FC
FD
FF
1C
15
24
6D
1D
15
1F
22
08
12
0D
CC
06
05
EE
C4
2D
2F
2A
01
2F
F4
09
04
27
12
F2
F7
12
14
FC
FC
0B
20
10
1E
F4
00
FF
FA
04
EE
E9
FF
E6
FD
EE
02
26
34
37
26
3D
0A
06
F6
20
FE
E9
DC
F4
EC
E4
EC
F8
D6
D5
C7
F7
05
06
EE
ED
E2
F9
1A
E2
F3
0F
28
12
E1
FA
E9
22
1B
13
00
FC
F2
13
FA
DF
F8
09
FC
FA
DF
FF
2B
F6
0C
05
04
FF
0A
FF
03
1C
15
17
0B
03
04
F9
16
09
F6
0A
02
1B
14
01
04
EF
06
14
F3
07
FA
0A
F3
E9
F8
10
12
B5
EA
11
29
F8
12
1A
25
F3
FC
14
1A
FF
03
08
F5
00
0E
F2
ED
00
0B
F8
01
F9
12
25
35
F9
02
19
03
05
FB
28
FD
FB
04
F5
FF
0B
15
1B
16
FA
18
0E
0F
0A
0E
07
FD
F5
E9
EA
F6
F1
07
FF
0B
F6
EC
FD
22
D6
FD
15
07
DA
03
1C
2F
33
0F
EE
C4
54
0D
1C
ED
0C
F2
04
0B
18
0C
E5
DA
20
E4
EA
FA
EF
0E
FE
F8
0C
0F
06
26
EC
F1
F6
FF
DB
D3
DB
D9
FB
EA
F1
10
F3
EC
10
16
FC
EA
0E
08
13
E9
FC
11
09
1C
08
F2
2A
23
F7
FE
1C
1D
1B
02
05
E8
E3
F7
0F
FB
1B
F1
11
06
FE
D7
00
E8
E9
E0
43
16
20
13
F1
01
27
1A
04
FB
FE
15
E3
00
EA
05
0E
E9
EE
CF
F8
F3
FC
DC
0B
06
05
E4
2B
1F
E1
F5
06
02
2E
36
FC
22
1E
31
ED
D5
FF
0A
E0
FF
FC
F7
06
29
22
3F
E7
E5
03
2D
F4
D7
EB
05
EF
F8
FD
E6
15
0F
FD
D9
23
1C
FC
FE
26
15
03
F4
58
1E
F5
EC
22
24
0E
24
0D
21
FF
F3
14
1E
09
F5
F7
EB
FD
28
03
18
21
17
08
0E
01
ED
E6
C0
D4
F0
15
23
1D
18
EE
12
1F
1D
12
15
F2
06
11
FE
15
06
0D
20
07
00
13
2C
20
02
1D
14
38
00
06
0B
2C
FB
F6
DB
D6
F5
14
10
13
F9
DD
EE
F1
ED
EB
E4
0E
06
F4
EF
02
30
F0
00
F2
F1
12
0D
1D
F6
03
29
1A
09
F3
1A
4D
08
2F
13
2C
32
09
FF
11
5A
0D
DE
F7
2B
D5
EC
CB
F4
FD
13
27
22
FD
E3
EA
03
F7
04
FA
E7
F8
17
1E
FC
0A
0E
00
16
09
E8
F0
11
01
F5
F8
F2
FB
10
28
F7
D4
E9
D8
B4
05
1C
F0
E4
1B
2C
0E
0A
CF
E5
F6
D1
F1
1B
14
42
FC
24
0F
E1
E3
FD
F8
DB
E7
F4
0B
17
0B
2E
24
02
05
0E
17
04
F6
EF
18
24
E9
FC
01
FA
60
4F
2F
26
20
FA
EA
EE
25
0E
00
FD
56
37
04
F8
D1
CA
D4
D9
E9
F4
E3
E2
F1
F5
0C
08
FD
F5
FA
ED
CB
E5
D1
AC
E0
F2
14
02
E5
F9
0E
0B
04
F3
F3
F4
05
23
25
2B
FF
EF
08
FC
FF
0A
F9
06
F3
11
F6
FF
15
29
1D
2D
23
15
EF
F4
23
10
12
04
FE
09
2D
18
F3
F8
0F
EC
FB
05
0A
01
25
20
10
FF
0A
13
05
E7
19
1A
11
25
FF
13
05
0D
E9
FE
F7
EF
D5
E1
F0
07
F3
F6
17
36
0C
F7
06
0B
F8
08
F6
13
DF
DF
E6
EA
FE
1A
2B
29
FD
04
05
EB
12
15
1F
FA
12
08
2A
05
02
1B
22
2E
03
FD
E9
0B
0C
FB
0A
05
1A
01
03
02
14
D5
D4
B7
EB
BF
F3
02
D5
02
1A
05
38
21
38
1F
11
E7
EB
0F
15
F4
F6
F8
0B
EE
EB
F0
FA
FD
0C
EE
FD
02
01
29
19
08
04
06
0E
FC
FF
07
0D
06
1E
12
13
13
FA
0C
F5
F7
FB
06
E9
FF
0A
15
F5
EA
DD
F2
D1
CF
E6
0A
E3
F6
15
18
D8
FC
18
F8
FC
13
1B
1D
1E
05
EA
F7
10
02
DA
04
16
11
03
F8
00
FF
09
FB
D4
CE
D6
D9
F0
F9
DF
F0
F5
D4
09
22
2E
2C
1C
0F
1A
27
2C
1E
16
09
13
2B
1F
16
FF
1E
16
27
08
E6
F6
0A
12
15
F4
0B
12
1A
07
0C
08
0B
10
1D
FA
D1
13
21
F4
EA
0F
01
F4
F7
F1
DD
E1
F2
B9
D7
E6
07
FF
F6
02
FF
EE
F0
FF
F9
F6
DB
06
D8
EC
F2
F6
07
E9
FA
11
05
F5
01
F4
F2
1D
0A
F6
E1
5D
3E
15
02
0A
14
F6
E4
11
0F
F6
00
03
05
08
0C
F5
F7
0F
02
02
00
DE
C9
06
FF
E6
D3
E5
F1
EB
E8
E0
E8
DF
EE
0D
FE
05
03
21
EC
F7
E3
12
0C
0C
0C
30
08
1E
0D
F4
00
07
EF
31
1E
01
F4
15
0B
ED
D9
1F
29
FE
D9
43
FF
EE
03
04
FE
D0
E9
1A
14
33
37
38
FD
17
0D
04
1C
10
13
12
29
0B
13
01
13
0B
E5
14
20
20
F0
13
12
18
0D
F6
18
0A
DA
F1
E9
F9
F7
18
25
20
F2
02
0A
FA
D0
E0
F6
FC
DB
DF
F0
E5
FE
FB
14
EA
07
09
1D
00
1C
F2
00
D6
0D
F0
08
04
22
F8
2B
22
22
F0
02
FC
10
08
FD
F0
FA
1D
26
16
10
30
3B
30
1B
22
18
01
15
F2
FA
09
0D
D9
03
16
21
D4
E4
E3
D8
E8
FF
F1
FC
01
F7
03
F7
FA
00
FF
FD
01
0B
F7
15
EC
06
13
0D
FE
17
F4
E7
FB
34
15
05
E4
19
00
0E
3A
1F
F4
F4
15
11
00
EA
15
FC
EE
FF
2C
10
EB
EE
1C
34
14
0D
13
25
16
04
27
03
0A
26
FD
EE
F8
05
F6
F4
1A
15
10
15
19
FE
03
1B
02
12
FE
1A
2C
0B
09
0E
0C
16
0E
F9
F6
EB
06
08
00
F7
FD
02
0F
EF
17
16
0C
05
1D
32
10
23
02
27
2A
17
FC
00
FD
FE
1D
12
05
F0
18
F0
0D
03
07
EB
11
0E
FE
EA
00
12
15
22
1F
FA
23
18
0C
F8
02
07
0C
F1
13
14
13
03
FE
06
F1
FB
FE
00
F2
01
EF
06
21
F3
F4
22
36
FF
E1
EA
F1
EF
04
F6
F6
15
24
03
F7
00
FE
07
0A
13
DE
F4
D2
DA
12
06
FF
DB
22
F7
09
21
22
28
0B
1E
FA
F8
E9
E1
F4
F2
F3
E8
FE
FD
F2
EE
D2
DD
DB
C8
E7
E6
FF
F1
07
F5
15
1D
FA
F2
0A
18
F2
1C
0A
05
24
13
00
FA
01
06
F9
F5
E2
ED
02
EF
E7
EC
06
00
2A
26
28
EB
E8
0F
FC
DE
BF
DF
0D
0F
2B
36
25
07
E1
C1
CF
15
E4
F8
E8
27
09
06
FD
0F
E9
01
FF
01
A9
D0
AD
CA
D6
AD
E5
FB
CA
E2
FF
FB
E1
F0
04
0D
0A
1D
2F
00
F3
06
26
06
DF
FA
0A
02
D7
07
0C
00
E5
14
12
26
FF
1F
2F
2D
07
0D
10
1A
F9
19
05
0E
F3
07
18
14
0A
05
06
19
F8
08
03
04
1F
22
17
1F
1A
21
22
0D
1B
17
1B
1E
19
FC
17
FA
0F
FE
FD
1C
DB
1C
03
18
FB
0C
16
12
FB
F9
F3
DD
22
09
DC
AD
ED
15
0E
11
EB
F0
07
20
F2
05
00
0A
E9
EB
F4
F4
B8
C8
FB
17
C1
E5
FD
13
D7
EF
12
16
F6
FA
10
33
45
14
FC
DD
33
D6
E5
16
0B
C6
15
08
1B
F1
F6
03
CE
D6
15
1D
DC
05
02
F0
D2
E6
FC
D6
EC
F6
F6
E3
D0
08
24
1E
F6
0F
16
0A
F6
F7
FD
01
F4
F7
FA
10
08
08
1B
12
00
05
FD
E7
04
00
04
00
29
20
1E
0E
F7
FC
F7
1C
F8
10
F9
05
CE
F4
EC
0D
03
0F
FA
0D
E9
F7
F9
FF
BE
FF
F8
F3
EA
EF
F4
FD
18
01
23
0F
0A
0B
07
08
E2
EC
F0
EF
D1
05
F5
EB
DC
D8
CF
CA
1B
FA
0D
F6
12
FC
F1
E0
13
0D
EB
0A
F9
FE
17
22
24
F0
EE
D0
0C
08
F4
F3
FC
F1
05
2B
F1
E9
0E
31
1A
1F
00
03
17
F5
12
F2
0C
33
0C
FF
34
25
EB
04
FA
25
12
EA
F4
1A
07
10
25
1A
FB
19
02
18
F8
DF
11
F6
0C
F2
0D
01
ED
08
F5
F1
FB
37
08
1C
20
27
F6
FC
05
05
03
F1
F4
08
02
1E
16
F5
1A
18
13
ED
08
10
1D
07
FD
0C
09
04
0B
02
0C
1E
22
14
EF
CD
14
0F
0B
17
F9
F8
15
09
E8
E9
F4
1B
E3
E1
FB
10
19
1A
22
1C
ED
F3
15
1A
F5
0C
06
F4
E9
2B
31
25
CA
C2
11
1D
DA
0B
09
17
F2
E9
DE
D9
A8
E0
C1
E3
F2
00
0A
24
0B
E2
01
11
FE
FF
EF
FC
13
FC
0E
03
FB
FA
EF
02
EB
FB
03
12
0C
FB
0A
04
08
07
0E
0B
F6
05
F5
FB
FF
0B
17
04
14
0B
1F
CF
0F
01
05
CA
F4
F8
DC
EB
EF
EB
14
02
08
09
0E
F7
EC
F9
DA
ED
0B
08
17
13
F5
08
01
06
E1
F3
F7
0B
EB
D6
F2
F9
BE
E5
02
D6
18
2E
F1
FD
19
F2
F1
F1
F8
01
07
1B
19
18
FD
13
18
F8
02
15
F2
F6
F6
FB
16
FE
0E
01
2B
0D
2C
18
28
F8
04
1D
F4
EA
02
00
20
FD
FF
D9
BC
BB
D9
F6
C0
EA
04
0F
B8
F1
EF
10
D1
EB
01
0F
CF
EA
E3
FA
FD
F4
01
0C
E7
01
F5
F9
15
06
11
F2
02
F5
0C
E8
CF
FB
05
06
DD
F6
F2
02
0E
EC
FA
DD
00
03
00
07
06
00
13
10
FB
00
FD
12
1C
0C
FF
24
DA
CB
ED
EE
E1
D8
F8
F2
CF
D3
09
D7
EA
E6
0A
EC
0C
E6
ED
DD
20
27
06
0C
FF
16
08
11
0B
22
1C
0C
FC
D6
CA
07
D7
D0
EC
FB
F1
E3
EA
0D
EB
F5
EF
06
08
2A
17
E9
20
FB
10
03
2E
D8
EF
00
F3
AC
D4
08
1A
1E
F7
02
0A
01
FB
FA
02
03
EB
02
05
03
18
FB
0E
14
0A
32
F7
F2
03
0D
09
17
0C
FB
00
F5
E0
03
13
23
2C
47
2B
0A
11
1C
24
1A
0E
0D
2E
3C
2B
23
29
1F
1A
08
0E
FF
17
FC
0B
11
03
F3
07
EB
02
2F
12
F0
09
FE
FB
04
0B
07
22
04
0E
22
3E
22
24
14
11
08
E9
17
D2
0C
1C
21
DC
16
41
3F
FC
09
21
2B
F2
03
04
FF
07
01
E1
EA
14
FE
D6
FC
FA
E9
EA
FD
DB
EF
EA
F7
14
0F
13
FB
1C
2A
F3
FB
0B
17
0F
14
32
23
14
FE
0A
FE
F7
11
E5
05
11
0B
F8
1A
19
1B
26
1E
20
11
F7
02
00
0D
12
17
15
06
16
21
1B
F1
1F
0A
01
17
39
F9
09
F9
24
33
0A
1B
F1
F3
FC
1B
16
03
0E
16
0A
EC
02
FD
FB
09
07
FF
1C
F4
FA
02
F7
FF
F4
F6
06
FC
F4
10
22
12
F9
1E
28
2E
13
12
0C
07
E3
0C
FD
FD
E7
17
1B
14
FE
28
0E
12
0C
17
FD
F0
FD
13
FF
00
F4
EB
FB
F1
F3
F2
07
E9
ED
F4
9D
F5
F4
16
89
F5
1B
26
BD
17
2D
01
09
20
34
1E
D6
F0
01
1B
04
FE
E4
FD
14
06
F1
00
17
EE
E4
04
0D
0E
15
2B
08
FF
EF
FA
F0
11
F7
F5
FD
FE
D6
F0
D2
01
E7
0D
DC
14
15
F8
F4
02
F2
EE
03
12
11
12
02
08
04
EA
ED
FC
F7
05
1A
11
18
21
20
08
01
F6
CC
F7
D7
E1
EF
04
EB
CF
FD
04
F9
EC
04
F9
22
04
11
F8
0D
F2
00
09
F2
0E
09
F2
E8
F7
01
F7
FA
06
EA
03
0D
11
13
EA
F4
FB
03
09
F3
E9
02
EF
FF
11
FA
01
EA
0E
F7
0F
0F
FC
FA
13
0F
07
F4
0B
F2
11
EF
FB
03
F1
12
FF
F2
F8
02
EF
0B
03
06
0C
F9
01
F7
08
07
EA
F7
F0
11
ED
F8
10
EE
07
F0
F8
0D
E8
F8
0C
F1
15
ED
EE
0B
F9
F4
F1
04
0E
EC
F7
F1
F4
0C
10
F1
07
F6
FA
EC
F1
F0
00
0C
0D
F7
10
0A
F3
03
13
EC
00
01
FF
0D
08
07
08
EF
07
0C
F2
F7
0A
F3
F5
02
EB
F9
EB
F1
EB
0D
08
F0
0D
F6
FB
F3
03
EC
00
EE
04
05
F8
0A
0D
FF
15
03
0E
00
0E
FB
05
15
FA
F3
00
0C
10
0B
F1
FB
05
01
FE
FA
03
EB
08
EE
FD
FD
FC
02
F9
06
00
E9
07
EC
E9
0D
01
ED
FC
EF
EF
06
00
F8
F4
EC
F3
0E
F0
F4
00
FA
EA
EB
05
EE
0E
04
10
FF
F3
04
FA
0C
F5
03
FE
F2
EC
00
ED
E9
E8
FA
F8
F7
04
01
00
01
F9
0B
F1
07
F0
0C
06
03
F9
01
FF
F0
E7
07
EE
FD
FB
F2
0B
EB
ED
E9
04
2F
33
0C
E2
23
0B
13
20
C6
E7
1D
06
27
57
1F
12
D7
EF
CA
B6
09
FE
06
DE
F1
ED
E6
EE
11
F2
F0
13
EB
07
F2
29
E9
F9
1F
1E
F0
F5
F3
D9
D3
DC
20
14
F7
EC
DE
E9
0E
14
F6
15
E1
DB
07
20
31
12
00
E9
0C
08
FE
EA
13
1A
07
D4
E7
0B
0A
E7
38
1D
00
20
09
0C
20
29
E5
CD
F1
01
EC
DF
EE
34
2C
2C
40
6A
20
19
04
FC
09
12
FB
01
0F
13
0C
F7
03
0B
19
F2
FD
1C
13
1A
F0
06
FE
D4
15
38
02
FC
1F
31
26
42
EE
F9
E5
EB
0B
24
18
DD
F9
07
F0
E7
08
E6
0C
1D
D7
CD
C0
C4
FC
FC
E8
E1
F2
F7
FC
F6
1A
1D
0D
FF
35
17
17
09
29
F8
1F
24
2C
E7
F0
FF
D2
CB
D0
DA
FA
F1
05
D9
F3
EA
F1
E9
E7
E4
FE
EE
16
1F
1B
27
FC
00
F3
FD
E0
04
E0
EC
E2
F7
D9
F1
1F
24
14
25
03
E9
DF
00
FA
ED
05
0E
F9
18
20
16
1D
00
06
0D
D9
02
00
05
0E
F8
0B
15
38
21
29
0D
1E
18
10
FC
F9
E7
F0
D9
3A
21
03
01
0C
F3
04
F7
14
FC
02
21
1D
1E
2D
12
27
0F
08
0A
16
0D
11
FB
ED
FA
EB
02
04
E0
DA
CC
E5
DF
FF
E3
F2
1D
1F
10
08
19
F7
0D
E4
D9
F1
EE
CD
F6
0D
E9
FD
02
FD
E3
08
FB
10
10
1F
24
32
01
24
1B
06
FD
2C
1E
00
0C
E1
FF
F6
08
F6
DA
FD
00
FE
E7
EE
F2
EB
00
FE
FB
FB
05
FB
E6
E7
06
FC
F4
08
12
05
FE
15
19
17
EA
11
02
E2
F6
0A
16
FA
FF
FD
F9
17
18
FD
F9
FD
0F
E7
E8
0B
04
1C
04
F3
FD
FD
02
02
03
FA
ED
DB
DC
0A
02
0A
EF
12
06
0F
03
16
0D
16
DC
09
10
07
D6
FA
0F
F0
EA
FD
28
33
2A
0B
26
15
16
04
10
03
07
02
FC
08
0A
F0
BE
D1
E5
05
CF
A0
AC
E8
ED
E4
C1
F6
29
1D
13
FC
13
00
E5
22
1B
29
FC
0B
13
1F
03
F5
11
0E
10
11
E8
F9
F7
12
0E
1B
05
0C
F7
10
11
F7
F6
0A
0C
1A
28
1F
3F
F9
ED
0D
0D
E6
08
09
02
ED
FB
13
08
00
DA
E0
E8
ED
E8
F8
0A
D8
05
F9
01
08
09
0C
F9
EA
08
23
18
E9
D9
03
EE
08
05
EE
F7
1A
08
EF
04
F5
F8
03
0D
0B
FA
0D
F0
EF
09
E7
E9
EA
0C
03
FF
E9
F5
00
F7
FA
F8
E7
0C
05
FA
09
FA
E8
F5
10
F8
EC
04
12
F8
F1
E7
EA
03
F3
00
F7
06
F7
06
03
08
12
F8
FD
0E
EF
FF
12
E9
11
EF
0E
0D
EC
F2
F5
F2
E9
EB
03
FC
01
05
06
E9
11
0F
F8
EE
0E
04
FA
F9
E7
12
EC
E6
F4
0F
F6
F4
06
EF
F1
F1
FD
F8
E6
FA
09
EE
EE
EA
10
F8
08
0D
01
F1
FC
01
E8
F7
F1
EA
F7
0E
EE
00
10
03
F4
F5
EC
F1
07
FD
FB
F7
F5
0C
0F
03
0F
08
04
EC
04
0E
EB
09
01
F4
FF
00
EF
FE
05
F7
0A
FB
E9
0A
13
F1
0C
F7
EE
ED
03
02
05
F7
FD
0B
0C
F9
F5
0E
EF
10
F0
03
F4
EE
F6
FC
EF
07
F3
05
06
0B
EA
02
FC
0B
04
F3
F6
FA
08
06
EC
01
0D
FE
0F
F0
F9
00
FC
FB
0A
EB
02
EF
FB
F0
FA
F8
09
FD
EA
01
10
FF
F0
FC
F4
EB
F5
EB
00
01
EF
E5
F5
F6
E8
FB
F9
E0
F2
EF
04
EB
10
FA
F0
FC
01
EB
0A
FE
11
06
FC
05
F5
EC
ED
0B
03
E9
F9
02
FD
09
BA
F2
EA
F7
E9
FA
02
08
00
F8
02
31
C3
E1
33
2E
40
1D
13
0A
19
05
1C
00
1C
23
0C
12
15
1C
17
2A
0A
E9
F0
ED
27
15
07
D4
2B
2E
0B
09
2E
FF
F6
F7
00
EC
DA
F1
E9
E3
15
19
F5
E8
FF
05
F3
16
1B
15
E7
DA
DE
D6
D5
D5
FE
08
D4
D5
E1
12
F2
EE
FD
D2
08
FE
0D
FC
21
15
F6
0D
30
26
07
F8
12
F1
F2
F1
00
00
F7
F3
09
FA
01
1F
2B
1F
1B
1B
23
24
F6
1D
05
EC
EE
B5
F5
CF
EC
FD
07
E0
EF
F9
22
33
29
11
22
FF
EF
DA
1B
21
10
27
10
FC
FA
14
17
0F
E3
E1
F9
FC
0E
18
0F
0B
14
0D
FD
04
FD
F4
09
E1
D8
07
B5
04
D6
10
1A
12
D5
C3
10
3B
1E
D5
D9
FC
00
FB
12
13
15
F3
1D
18
14
35
1B
22
16
18
1D
1F
07
21
01
E4
FE
01
FC
05
FF
13
FF
17
1A
19
EE
01
DD
01
16
16
16
36
13
1B
19
3D
13
02
0F
1C
4E
47
4D
5F
25
26
F5
E2
1D
EF
D3
EA
18
11
F6
06
0F
F6
EC
E2
D8
DF
F2
0D
F3
17
17
03
FA
1C
FE
0A
0A
07
1D
12
13
00
22
10
41
11
2A
19
2C
33
09
05
3D
3F
04
08
CE
E0
E9
08
0A
04
06
09
09
FA
2B
04
EB
E2
FC
E8
FE
1B
21
3D
07
0D
05
1E
0D
0C
F4
EB
15
17
F0
D1
CE
EF
FD
E9
D4
07
0A
F5
EC
D8
0F
06
BE
DD
F7
F0
FC
10
0B
15
03
0A
E9
FA
F1
FD
D3
F4
E0
FA
13
3C
17
FE
0D
1E
E5
05
16
1D
0F
28
16
EE
04
E7
ED
EC
16
19
07
F7
15
F3
07
D8
FA
F0
EE
D1
DF
C9
E2
DE
D6
FD
1A
1B
07
3C
1F
EC
E5
02
0C
02
DC
0D
19
4E
E3
EC
F6
10
F7
02
14
ED
20
1F
04
EC
1A
FE
F3
03
E1
DF
DF
DB
00
ED
0A
F1
11
13
F5
F4
19
03
FB
F7
60
42
DF
E9
05
14
C6
26
0C
FC
19
13
F4
F7
2A
2F
05
EC
06
0B
F9
F0
08
0F
16
0E
0B
01
F7
ED
16
F6
E0
F8
04
FD
F1
FA
E2
FA
13
07
01
12
F9
02
22
24
F5
EC
E4
CE
11
DA
D1
F5
E5
E5
F6
44
10
0B
08
31
FA
EE
0A
20
11
0C
1E
15
DE
07
EA
22
F1
04
0A
1A
2E
09
05
F7
38
16
F5
F9
18
17
04
2D
0B
17
26
22
FB
11
12
FB
E8
FE
11
00
02
0B
0D
EF
0B
03
F6
02
03
11
0B
0E
01
F8
FD
0F
05
10
F8
F1
F3
F1
0E
EC
11
EA
F6
03
F6
08
EC
0E
0D
0A
F5
02
0A
F8
EB
F4
F0
F0
05
F0
F7
03
FC
04
F7
11
EF
02
F7
F9
F9
F7
FD
FF
0D
10
04
12
EC
01
03
0F
08
12
ED
F9
0C
09
EB
F4
13
06
01
EC
EE
11
E9
01
15
FF
E8
EA
FD
F9
F0
EF
02
0A
EE
EE
F4
00
E9
F9
0C
F5
EE
FF
0B
EC
EC
F6
0B
06
0E
E9
FA
EE
FA
F8
F9
F4
03
13
06
FC
FF
10
0D
0D
05
EF
F3
F5
F8
06
09
FF
E9
08
0C
F8
EC
F7
06
12
02
F7
F9
FB
13
FA
0A
02
0F
F9
06
01
F3
F8
00
0A
F7
F3
0D
F9
01
14
F5
00
FE
FA
05
EB
EF
EB
0E
FE
10
FA
11
FD
FF
F0
F9
F3
FA
EC
07
07
FE
EA
0E
0D
F7
F3
F3
0C
F3
EA
EE
11
0F
01
FF
02
F6
06
FC
06
F9
EB
05
EA
FA
EC
F0
10
0A
FD
0F
EA
F1
0E
FB
00
FA
01
01
F0
EA
EC
09
F9
FE
FA
F6
EC
02
0F
01
FD
F8
EE
FC
F0
ED
0A
FF
01
EC
F5
05
03
06
00
2B
16
FB
0B
06
F2
FE
CF
E9
CD
E5
EB
E7
D8
06
07
FB
25
01
FF
0A
09
FB
09
15
15
02
0F
10
14
28
17
E9
B3
10
EF
FF
04
0F
F4
09
2E
F8
0E
0C
06
04
FC
1B
13
EA
DC
D7
E0
BD
E3
FB
DD
EC
E6
F9
F8
F6
0B
00
32
EC
09
FF
03
1A
0D
18
FC
04
0C
F8
E6
F9
FF
EF
DB
01
1A
00
05
FB
03
FB
1B
FF
27
19
FB
F7
15
01
0B
F7
F7
FE
04
F1
08
FF
F6
00
13
06
F8
F1
FB
0C
08
E1
F2
0D
06
14
08
3C
F9
E6
02
03
0D
EC
05
1B
36
F9
13
01
14
FE
01
0D
1C
FF
08
E5
EA
05
14
37
5C
F0
F7
ED
FD
F1
F7
00
1A
00
10
1B
1D
F0
E6
1B
EF
12
22
01
E8
31
D5
F2
03
19
D4
DE
07
EE
09
12
12
04
FA
03
0D
18
0E
12
EE
15
2F
08
0E
CD
FC
04
0D
F2
F0
FC
F9
04
10
03
E5
0E
09
24
F4
ED
FC
EC
AB
0A
F8
0A
BE
3C
0F
0A
EA
17
02
FB
DD
DA
E2
F6
0D
02
18
FD
03
24
1E
EE
09
01
E5
FB
F4
07
03
1A
20
21
09
24
05
16
1C
09
15
15
23
04
EE
14
34
20
0B
F7
FF
FF
06
E4
09
02
F2
2C
30
FE
EB
FF
EA
EC
E7
06
0B
04
E2
FD
F7
E0
DC
F5
15
01
F6
FC
FC
F0
C6
F6
EC
E7
0E
FB
D2
F9
06
FC
F6
F2
0F
E7
E5
0B
1B
D1
F9
F0
F2
DE
FB
E3
FD
C4
E0
E7
FD
D4
1C
1B
27
FC
12
13
26
1A
19
10
E9
F6
04
11
F9
DF
FB
DC
D9
DD
F2
0A
12
F3
FB
F4
3C
12
13
1D
43
07
14
24
22
11
16
1B
1F
F4
0C
0B
0E
09
17
1B
16
F1
FF
0C
26
C9
E6
F2
04
D9
E9
FA
D5
F4
E8
F7
C7
F5
16
17
1E
02
0E
23
1E
22
12
F8
E0
23
20
F0
D9
E6
EA
EC
17
E2
EA
E9
F1
F4
E0
E3
FE
0C
FB
0E
00
F7
0C
22
08
CD
F7
15
24
C9
E8
EB
00
D8
EB
FA
F2
00
00
FD
E4
E8
0A
FF
F8
F4
0C
E2
F3
28
0F
0C
06
E2
0B
16
FF
E4
FD
01
04
E9
ED
FE
F5
FB
10
06
04
0D
10
04
03
10
14
FD
B2
19
0F
F1
B4
17
24
30
41
0D
FA
E0
19
F9
0B
27
1F
0A
FE
01
EF
15
07
0C
F3
F3
17
10
06
01
E5
15
FC
13
FE
F5
D7
44
3C
0E
FF
