WIDTH=8;
DEPTH=8192;
ADDRESS_RADIX=HEX;
DATA_RADIX=HEX;
CONTENT BEGIN
    0000 : 23;
    0001 : 06;
    0002 : FA;
    0003 : F4;
    0004 : EE;
    0005 : F4;
    0006 : F1;
    0007 : FC;
    0008 : C9;
    0009 : F5;
    000A : 15;
    000B : 0F;
    000C : E2;
    000D : C1;
    000E : F1;
    000F : E8;
    0010 : EF;
    0011 : F4;
    0012 : 20;
    0013 : 2E;
    0014 : FF;
    0015 : FF;
    0016 : FB;
    0017 : 1D;
    0018 : FF;
    0019 : 12;
    001A : 1C;
    001B : 13;
    001C : FB;
    001D : 04;
    001E : 0A;
    001F : 15;
    0020 : F3;
    0021 : F9;
    0022 : 1E;
    0023 : ED;
    0024 : F1;
    0025 : E1;
    0026 : 0D;
    0027 : 0B;
    0028 : D2;
    0029 : 09;
    002A : F8;
    002B : 11;
    002C : 0A;
    002D : 16;
    002E : 15;
    002F : 1C;
    0030 : 2C;
    0031 : 40;
    0032 : 07;
    0033 : E9;
    0034 : 03;
    0035 : 0D;
    0036 : E6;
    0037 : D3;
    0038 : 06;
    0039 : F9;
    003A : 02;
    003B : EA;
    003C : DD;
    003D : D2;
    003E : E0;
    003F : EF;
    0040 : 12;
    0041 : 30;
    0042 : 26;
    0043 : 0C;
    0044 : F8;
    0045 : 14;
    0046 : 02;
    0047 : F0;
    0048 : 05;
    0049 : 04;
    004A : FE;
    004B : 11;
    004C : DA;
    004D : 05;
    004E : FF;
    004F : F3;
    0050 : DF;
    0051 : EA;
    0052 : E4;
    0053 : 01;
    0054 : FB;
    0055 : 11;
    0056 : 12;
    0057 : 11;
    0058 : 0D;
    0059 : 1A;
    005A : 0D;
    005B : 17;
    005C : 0A;
    005D : 23;
    005E : 23;
    005F : 40;
    0060 : 0E;
    0061 : 2A;
    0062 : 12;
    0063 : 18;
    0064 : 1A;
    0065 : 1D;
    0066 : 0F;
    0067 : 11;
    0068 : FA;
    0069 : 03;
    006A : F2;
    006B : 04;
    006C : E3;
    006D : E9;
    006E : F7;
    006F : 0B;
    0070 : FD;
    0071 : 14;
    0072 : 33;
    0073 : 03;
    0074 : 1A;
    0075 : 15;
    0076 : 0E;
    0077 : F2;
    0078 : 21;
    0079 : 18;
    007A : 0C;
    007B : 09;
    007C : D3;
    007D : F0;
    007E : DF;
    007F : DF;
    0080 : 03;
    0081 : 21;
    0082 : 2D;
    0083 : 21;
    0084 : E9;
    0085 : EF;
    0086 : 0B;
    0087 : 0A;
    0088 : 14;
    0089 : EC;
    008A : EC;
    008B : F7;
    008C : FC;
    008D : 00;
    008E : 0B;
    008F : E8;
    0090 : F9;
    0091 : 2C;
    0092 : 35;
    0093 : 17;
    0094 : FC;
    0095 : FD;
    0096 : 00;
    0097 : E9;
    0098 : 0C;
    0099 : 27;
    009A : 11;
    009B : FC;
    009C : 26;
    009D : 34;
    009E : 25;
    009F : F9;
    00A0 : F8;
    00A1 : FA;
    00A2 : 15;
    00A3 : F8;
    00A4 : F7;
    00A5 : D8;
    00A6 : EE;
    00A7 : F9;
    00A8 : FD;
    00A9 : 81;
    00AA : B7;
    00AB : 0B;
    00AC : CB;
    00AD : F2;
    00AE : F4;
    00AF : ED;
    00B0 : F2;
    00B1 : 00;
    00B2 : 16;
    00B3 : 1D;
    00B4 : EC;
    00B5 : F5;
    00B6 : 10;
    00B7 : 05;
    00B8 : F7;
    00B9 : 19;
    00BA : F7;
    00BB : F1;
    00BC : 0D;
    00BD : 09;
    00BE : FE;
    00BF : FC;
    00C0 : D8;
    00C1 : 0F;
    00C2 : 00;
    00C3 : E1;
    00C4 : F1;
    00C5 : F4;
    00C6 : F5;
    00C7 : EE;
    00C8 : FF;
    00C9 : 07;
    00CA : 09;
    00CB : 08;
    00CC : 17;
    00CD : 2C;
    00CE : 18;
    00CF : 1D;
    00D0 : 05;
    00D1 : F7;
    00D2 : E2;
    00D3 : D7;
    00D4 : E9;
    00D5 : F5;
    00D6 : 12;
    00D7 : 03;
    00D8 : F0;
    00D9 : FB;
    00DA : F1;
    00DB : E9;
    00DC : D1;
    00DD : E7;
    00DE : CF;
    00DF : C9;
    00E0 : EF;
    00E1 : FA;
    00E2 : F5;
    00E3 : 30;
    00E4 : E4;
    00E5 : FF;
    00E6 : F2;
    00E7 : 10;
    00E8 : DB;
    00E9 : F2;
    00EA : F4;
    00EB : 0F;
    00EC : 09;
    00ED : 04;
    00EE : 0D;
    00EF : 02;
    00F0 : 17;
    00F1 : 0F;
    00F2 : FD;
    00F3 : 0B;
    00F4 : FA;
    00F5 : FC;
    00F6 : 1D;
    00F7 : FB;
    00F8 : 0A;
    00F9 : F3;
    00FA : FA;
    00FB : E5;
    00FC : E6;
    00FD : F1;
    00FE : EB;
    00FF : 07;
    0100 : E9;
    0101 : ED;
    0102 : BD;
    0103 : C6;
    0104 : E9;
    0105 : F2;
    0106 : FE;
    0107 : E9;
    0108 : F8;
    0109 : F8;
    010A : 0D;
    010B : F4;
    010C : 19;
    010D : 22;
    010E : 11;
    010F : 14;
    0110 : 01;
    0111 : 0A;
    0112 : 15;
    0113 : 0E;
    0114 : F5;
    0115 : 1C;
    0116 : 0F;
    0117 : 22;
    0118 : EE;
    0119 : 06;
    011A : 14;
    011B : 13;
    011C : 26;
    011D : 17;
    011E : 16;
    011F : F7;
    0120 : B1;
    0121 : F0;
    0122 : EC;
    0123 : 16;
    0124 : D5;
    0125 : FD;
    0126 : 19;
    0127 : 08;
    0128 : 0E;
    0129 : 08;
    012A : FC;
    012B : 05;
    012C : FE;
    012D : 0B;
    012E : EE;
    012F : D9;
    0130 : 4F;
    0131 : 22;
    0132 : 12;
    0133 : FF;
    0134 : 39;
    0135 : 23;
    0136 : 04;
    0137 : E9;
    0138 : 49;
    0139 : 22;
    013A : 14;
    013B : 07;
    013C : 06;
    013D : FF;
    013E : F1;
    013F : F6;
    0140 : 17;
    0141 : F1;
    0142 : 05;
    0143 : 15;
    0144 : 08;
    0145 : 0C;
    0146 : FD;
    0147 : F8;
    0148 : F5;
    0149 : 14;
    014A : E0;
    014B : D7;
    014C : F2;
    014D : F5;
    014E : 0F;
    014F : 0D;
    0150 : FB;
    0151 : ED;
    0152 : EE;
    0153 : 0F;
    0154 : 2D;
    0155 : 29;
    0156 : 1E;
    0157 : FB;
    0158 : 1D;
    0159 : 08;
    015A : ED;
    015B : CC;
    015C : 27;
    015D : 41;
    015E : 21;
    015F : E9;
    0160 : 05;
    0161 : 15;
    0162 : 0F;
    0163 : FC;
    0164 : F9;
    0165 : FB;
    0166 : 00;
    0167 : ED;
    0168 : FB;
    0169 : 0C;
    016A : 09;
    016B : 26;
    016C : 0F;
    016D : 0E;
    016E : 1E;
    016F : 17;
    0170 : 16;
    0171 : F9;
    0172 : 0F;
    0173 : DC;
    0174 : 00;
    0175 : FC;
    0176 : F4;
    0177 : E5;
    0178 : 11;
    0179 : EA;
    017A : F4;
    017B : CE;
    017C : 09;
    017D : E5;
    017E : BE;
    017F : C0;
    0180 : 0E;
    0181 : F6;
    0182 : 09;
    0183 : 1B;
    0184 : E8;
    0185 : F9;
    0186 : 04;
    0187 : 0C;
    0188 : 01;
    0189 : F6;
    018A : 0E;
    018B : 11;
    018C : 02;
    018D : 08;
    018E : 14;
    018F : 07;
    0190 : FD;
    0191 : 20;
    0192 : 11;
    0193 : 14;
    0194 : 07;
    0195 : 27;
    0196 : 1D;
    0197 : 0D;
    0198 : FC;
    0199 : 0A;
    019A : 17;
    019B : 0D;
    019C : 1A;
    019D : 23;
    019E : 29;
    019F : 18;
    01A0 : DD;
    01A1 : C0;
    01A2 : C2;
    01A3 : 10;
    01A4 : A7;
    01A5 : E1;
    01A6 : CC;
    01A7 : 19;
    01A8 : E9;
    01A9 : 00;
    01AA : 08;
    01AB : 2E;
    01AC : F1;
    01AD : CC;
    01AE : E4;
    01AF : 00;
    01B0 : 0B;
    01B1 : 05;
    01B2 : 1B;
    01B3 : 33;
    01B4 : F9;
    01B5 : 07;
    01B6 : 0F;
    01B7 : 19;
    01B8 : 05;
    01B9 : 04;
    01BA : FD;
    01BB : E8;
    01BC : FF;
    01BD : 12;
    01BE : 0F;
    01BF : 09;
    01C0 : 11;
    01C1 : 20;
    01C2 : 18;
    01C3 : F9;
    01C4 : F4;
    01C5 : EC;
    01C6 : 05;
    01C7 : FF;
    01C8 : EC;
    01C9 : F4;
    01CA : 0B;
    01CB : DE;
    01CC : ED;
    01CD : 05;
    01CE : 09;
    01CF : 0A;
    01D0 : E2;
    01D1 : 06;
    01D2 : E2;
    01D3 : DC;
    01D4 : 04;
    01D5 : FF;
    01D6 : FB;
    01D7 : F8;
    01D8 : 16;
    01D9 : 19;
    01DA : 03;
    01DB : 03;
    01DC : F3;
    01DD : FE;
    01DE : 18;
    01DF : 22;
    01E0 : E1;
    01E1 : F6;
    01E2 : E0;
    01E3 : 02;
    01E4 : D8;
    01E5 : F6;
    01E6 : EC;
    01E7 : E2;
    01E8 : EB;
    01E9 : F8;
    01EA : F7;
    01EB : FA;
    01EC : CE;
    01ED : E8;
    01EE : 03;
    01EF : 28;
    01F0 : CC;
    01F1 : EA;
    01F2 : 12;
    01F3 : 0F;
    01F4 : E5;
    01F5 : 0F;
    01F6 : F8;
    01F7 : 14;
    01F8 : FB;
    01F9 : 15;
    01FA : 0A;
    01FB : 01;
    01FC : 0C;
    01FD : 1A;
    01FE : 28;
    01FF : 2A;
    0200 : 16;
    0201 : 19;
    0202 : D8;
    0203 : ED;
    0204 : 15;
    0205 : 13;
    0206 : F0;
    0207 : 13;
    0208 : 04;
    0209 : 14;
    020A : EF;
    020B : 1A;
    020C : 34;
    020D : 1E;
    020E : F0;
    020F : E1;
    0210 : F6;
    0211 : FF;
    0212 : 02;
    0213 : F8;
    0214 : FD;
    0215 : 08;
    0216 : 08;
    0217 : FD;
    0218 : 02;
    0219 : E0;
    021A : EC;
    021B : E8;
    021C : F5;
    021D : F9;
    021E : F6;
    021F : EF;
    0220 : D5;
    0221 : E3;
    0222 : C9;
    0223 : 2F;
    0224 : D9;
    0225 : FD;
    0226 : 02;
    0227 : 1F;
    0228 : E1;
    0229 : F0;
    022A : F8;
    022B : F5;
    022C : 03;
    022D : 09;
    022E : E7;
    022F : CC;
    0230 : 23;
    0231 : 19;
    0232 : FA;
    0233 : FC;
    0234 : 43;
    0235 : 17;
    0236 : 05;
    0237 : 20;
    0238 : 54;
    0239 : 41;
    023A : 19;
    023B : 1C;
    023C : 70;
    023D : 1D;
    023E : E6;
    023F : 0C;
    0240 : 23;
    0241 : FB;
    0242 : 0C;
    0243 : F7;
    0244 : 17;
    0245 : 15;
    0246 : EA;
    0247 : FC;
    0248 : 3A;
    0249 : 37;
    024A : 0E;
    024B : 05;
    024C : 06;
    024D : 11;
    024E : F7;
    024F : 14;
    0250 : 12;
    0251 : 00;
    0252 : 03;
    0253 : 10;
    0254 : 1F;
    0255 : 04;
    0256 : 0D;
    0257 : F7;
    0258 : 0D;
    0259 : 01;
    025A : F3;
    025B : F0;
    025C : 2A;
    025D : 27;
    025E : 08;
    025F : D5;
    0260 : 03;
    0261 : 22;
    0262 : 03;
    0263 : 07;
    0264 : FD;
    0265 : 04;
    0266 : 06;
    0267 : 07;
    0268 : 1F;
    0269 : 1C;
    026A : 04;
    026B : 1F;
    026C : 05;
    026D : F3;
    026E : 1A;
    026F : 14;
    0270 : 16;
    0271 : 19;
    0272 : FF;
    0273 : 0F;
    0274 : 04;
    0275 : 0B;
    0276 : 19;
    0277 : 0A;
    0278 : 20;
    0279 : 0F;
    027A : F7;
    027B : E8;
    027C : 02;
    027D : E1;
    027E : C1;
    027F : CC;
    0280 : F1;
    0281 : 17;
    0282 : EE;
    0283 : 08;
    0284 : D6;
    0285 : DF;
    0286 : F4;
    0287 : F3;
    0288 : FC;
    0289 : DE;
    028A : 02;
    028B : 21;
    028C : F1;
    028D : 07;
    028E : 1A;
    028F : 34;
    0290 : ED;
    0291 : 15;
    0292 : 16;
    0293 : F4;
    0294 : 08;
    0295 : 0D;
    0296 : 2C;
    0297 : FD;
    0298 : EF;
    0299 : 11;
    029A : 10;
    029B : 0E;
    029C : 14;
    029D : 12;
    029E : 39;
    029F : 07;
    02A0 : 1A;
    02A1 : D2;
    02A2 : 90;
    02A3 : F1;
    02A4 : B9;
    02A5 : E6;
    02A6 : DA;
    02A7 : 21;
    02A8 : BB;
    02A9 : F9;
    02AA : 04;
    02AB : 0B;
    02AC : E0;
    02AD : CF;
    02AE : C9;
    02AF : 04;
    02B0 : 06;
    02B1 : F2;
    02B2 : F7;
    02B3 : FE;
    02B4 : F6;
    02B5 : 03;
    02B6 : F2;
    02B7 : 0B;
    02B8 : EA;
    02B9 : E0;
    02BA : F3;
    02BB : FC;
    02BC : F4;
    02BD : 11;
    02BE : 14;
    02BF : 03;
    02C0 : 1B;
    02C1 : 10;
    02C2 : 1A;
    02C3 : 05;
    02C4 : 09;
    02C5 : 10;
    02C6 : 12;
    02C7 : FB;
    02C8 : 1D;
    02C9 : EE;
    02CA : F3;
    02CB : F9;
    02CC : 12;
    02CD : E1;
    02CE : 05;
    02CF : E1;
    02D0 : F3;
    02D1 : EF;
    02D2 : F6;
    02D3 : 00;
    02D4 : 0F;
    02D5 : 1A;
    02D6 : 10;
    02D7 : 1E;
    02D8 : 22;
    02D9 : 24;
    02DA : 0B;
    02DB : 00;
    02DC : EF;
    02DD : F2;
    02DE : DD;
    02DF : 02;
    02E0 : E7;
    02E1 : FB;
    02E2 : F5;
    02E3 : EB;
    02E4 : E3;
    02E5 : FB;
    02E6 : E3;
    02E7 : DC;
    02E8 : DB;
    02E9 : D4;
    02EA : ED;
    02EB : E4;
    02EC : AE;
    02ED : CA;
    02EE : F6;
    02EF : 0B;
    02F0 : F2;
    02F1 : F5;
    02F2 : F6;
    02F3 : F9;
    02F4 : CB;
    02F5 : 0A;
    02F6 : F1;
    02F7 : 04;
    02F8 : D9;
    02F9 : F1;
    02FA : 15;
    02FB : 12;
    02FC : F4;
    02FD : 0B;
    02FE : FE;
    02FF : 1B;
    0300 : 4C;
    0301 : 17;
    0302 : CD;
    0303 : BE;
    0304 : 0B;
    0305 : 0D;
    0306 : 19;
    0307 : F9;
    0308 : 16;
    0309 : 20;
    030A : 25;
    030B : F6;
    030C : 03;
    030D : F8;
    030E : 09;
    030F : 26;
    0310 : FB;
    0311 : 0C;
    0312 : F7;
    0313 : 12;
    0314 : 07;
    0315 : 0B;
    0316 : F9;
    0317 : 1D;
    0318 : 0A;
    0319 : 03;
    031A : F6;
    031B : 0F;
    031C : F0;
    031D : DB;
    031E : E3;
    031F : F7;
    0320 : E9;
    0321 : EE;
    0322 : F7;
    0323 : BF;
    0324 : FE;
    0325 : FB;
    0326 : F3;
    0327 : FA;
    0328 : 00;
    0329 : E7;
    032A : FD;
    032B : E5;
    032C : 03;
    032D : E7;
    032E : F9;
    032F : EB;
    0330 : 2D;
    0331 : 19;
    0332 : 24;
    0333 : CD;
    0334 : 2A;
    0335 : 22;
    0336 : 05;
    0337 : DC;
    0338 : 1F;
    0339 : 09;
    033A : 1B;
    033B : 09;
    033C : 14;
    033D : 43;
    033E : 14;
    033F : 1F;
    0340 : 13;
    0341 : 0A;
    0342 : 2B;
    0343 : 2B;
    0344 : 0B;
    0345 : 08;
    0346 : 1A;
    0347 : 0E;
    0348 : F1;
    0349 : 14;
    034A : 0D;
    034B : 05;
    034C : F9;
    034D : E9;
    034E : FB;
    034F : FC;
    0350 : 03;
    0351 : 01;
    0352 : F4;
    0353 : 0B;
    0354 : 23;
    0355 : 10;
    0356 : 07;
    0357 : 31;
    0358 : 0D;
    0359 : 02;
    035A : F7;
    035B : 09;
    035C : C1;
    035D : AE;
    035E : BF;
    035F : 04;
    0360 : 04;
    0361 : 25;
    0362 : 2E;
    0363 : 2A;
    0364 : 0F;
    0365 : 0A;
    0366 : 1F;
    0367 : 13;
    0368 : 0C;
    0369 : F2;
    036A : 29;
    036B : 0B;
    036C : 00;
    036D : 00;
    036E : 08;
    036F : F4;
    0370 : 0D;
    0371 : 28;
    0372 : 02;
    0373 : 17;
    0374 : 24;
    0375 : 23;
    0376 : 13;
    0377 : 16;
    0378 : 1B;
    0379 : 1E;
    037A : 04;
    037B : 04;
    037C : 16;
    037D : FC;
    037E : 3D;
    037F : 14;
    0380 : E4;
    0381 : 0C;
    0382 : 1C;
    0383 : 3D;
    0384 : E1;
    0385 : FA;
    0386 : 01;
    0387 : 0B;
    0388 : EE;
    0389 : 05;
    038A : 03;
    038B : FA;
    038C : EA;
    038D : FA;
    038E : F2;
    038F : CE;
    0390 : 14;
    0391 : 20;
    0392 : 12;
    0393 : EA;
    0394 : 1B;
    0395 : 12;
    0396 : 01;
    0397 : EA;
    0398 : 04;
    0399 : F6;
    039A : F9;
    039B : FF;
    039C : FA;
    039D : D8;
    039E : E9;
    039F : 08;
    03A0 : CA;
    03A1 : EF;
    03A2 : CE;
    03A3 : BB;
    03A4 : C8;
    03A5 : 13;
    03A6 : F7;
    03A7 : 08;
    03A8 : D8;
    03A9 : CB;
    03AA : C9;
    03AB : 0A;
    03AC : E0;
    03AD : 1A;
    03AE : 27;
    03AF : F6;
    03B0 : EE;
    03B1 : 0B;
    03B2 : 06;
    03B3 : 18;
    03B4 : F4;
    03B5 : 0B;
    03B6 : 1F;
    03B7 : FD;
    03B8 : F9;
    03B9 : 0F;
    03BA : 0A;
    03BB : FC;
    03BC : DE;
    03BD : E4;
    03BE : E2;
    03BF : D5;
    03C0 : FB;
    03C1 : 01;
    03C2 : E1;
    03C3 : DF;
    03C4 : F8;
    03C5 : 10;
    03C6 : 14;
    03C7 : FB;
    03C8 : 07;
    03C9 : FD;
    03CA : F8;
    03CB : 0C;
    03CC : F0;
    03CD : 06;
    03CE : EA;
    03CF : 02;
    03D0 : F1;
    03D1 : C6;
    03D2 : DA;
    03D3 : 9F;
    03D4 : FF;
    03D5 : F1;
    03D6 : F5;
    03D7 : F3;
    03D8 : 04;
    03D9 : 08;
    03DA : 13;
    03DB : 0F;
    03DC : 26;
    03DD : 0B;
    03DE : 17;
    03DF : 1A;
    03E0 : EE;
    03E1 : F4;
    03E2 : 31;
    03E3 : 49;
    03E4 : D3;
    03E5 : FC;
    03E6 : FB;
    03E7 : 12;
    03E8 : 03;
    03E9 : 08;
    03EA : 08;
    03EB : F3;
    03EC : 01;
    03ED : F2;
    03EE : E5;
    03EF : E4;
    03F0 : F7;
    03F1 : FD;
    03F2 : 14;
    03F3 : FB;
    03F4 : 10;
    03F5 : F3;
    03F6 : 0B;
    03F7 : E7;
    03F8 : 22;
    03F9 : 12;
    03FA : EC;
    03FB : FB;
    03FC : 01;
    03FD : 09;
    03FE : F5;
    03FF : CE;
    0400 : 3A;
    0401 : 17;
    0402 : 21;
    0403 : 4D;
    0404 : 0B;
    0405 : 12;
    0406 : 0B;
    0407 : 11;
    0408 : 21;
    0409 : 14;
    040A : FD;
    040B : 0F;
    040C : DD;
    040D : F5;
    040E : E0;
    040F : DF;
    0410 : EC;
    0411 : DB;
    0412 : E3;
    0413 : CE;
    0414 : E3;
    0415 : E5;
    0416 : E6;
    0417 : E4;
    0418 : 04;
    0419 : 01;
    041A : 0C;
    041B : F5;
    041C : E9;
    041D : 06;
    041E : F4;
    041F : 0F;
    0420 : DF;
    0421 : F3;
    0422 : F7;
    0423 : FF;
    0424 : E8;
    0425 : 06;
    0426 : FD;
    0427 : F1;
    0428 : F5;
    0429 : 28;
    042A : 17;
    042B : 07;
    042C : E8;
    042D : 20;
    042E : 0A;
    042F : 11;
    0430 : 2E;
    0431 : 03;
    0432 : 15;
    0433 : 0D;
    0434 : 19;
    0435 : FA;
    0436 : FA;
    0437 : 09;
    0438 : 2A;
    0439 : 34;
    043A : 2B;
    043B : FD;
    043C : 25;
    043D : 23;
    043E : 00;
    043F : 0D;
    0440 : 0A;
    0441 : 2A;
    0442 : 05;
    0443 : F9;
    0444 : 1A;
    0445 : 18;
    0446 : 02;
    0447 : 0A;
    0448 : 1B;
    0449 : 07;
    044A : 08;
    044B : 1E;
    044C : 0A;
    044D : EE;
    044E : EC;
    044F : F7;
    0450 : 15;
    0451 : 0F;
    0452 : 15;
    0453 : FF;
    0454 : 08;
    0455 : 19;
    0456 : 11;
    0457 : 16;
    0458 : 19;
    0459 : 0D;
    045A : FD;
    045B : F9;
    045C : 06;
    045D : EA;
    045E : F9;
    045F : 04;
    0460 : 15;
    0461 : 13;
    0462 : 19;
    0463 : 01;
    0464 : 0E;
    0465 : 12;
    0466 : 11;
    0467 : E8;
    0468 : FC;
    0469 : F9;
    046A : FA;
    046B : F2;
    046C : F1;
    046D : E6;
    046E : 01;
    046F : E0;
    0470 : 0C;
    0471 : 19;
    0472 : 24;
    0473 : 1A;
    0474 : 23;
    0475 : 1F;
    0476 : 04;
    0477 : 18;
    0478 : 1C;
    0479 : 27;
    047A : 1B;
    047B : 1D;
    047C : 0F;
    047D : 04;
    047E : F5;
    047F : 08;
    0480 : 16;
    0481 : 15;
    0482 : 28;
    0483 : 10;
    0484 : 0C;
    0485 : F8;
    0486 : FC;
    0487 : 01;
    0488 : FF;
    0489 : F1;
    048A : 16;
    048B : 18;
    048C : F4;
    048D : E8;
    048E : 0D;
    048F : 14;
    0490 : 10;
    0491 : 2C;
    0492 : 1F;
    0493 : FF;
    0494 : 1B;
    0495 : 0C;
    0496 : 2B;
    0497 : 10;
    0498 : 1A;
    0499 : 0E;
    049A : 2D;
    049B : 03;
    049C : 21;
    049D : 11;
    049E : 13;
    049F : 06;
    04A0 : F4;
    04A1 : E3;
    04A2 : BE;
    04A3 : F2;
    04A4 : E3;
    04A5 : DC;
    04A6 : 01;
    04A7 : E7;
    04A8 : CB;
    04A9 : F2;
    04AA : 11;
    04AB : C5;
    04AC : EC;
    04AD : 22;
    04AE : 0A;
    04AF : 00;
    04B0 : EE;
    04B1 : F5;
    04B2 : E8;
    04B3 : FE;
    04B4 : 28;
    04B5 : 15;
    04B6 : 18;
    04B7 : 0D;
    04B8 : 00;
    04B9 : FC;
    04BA : 09;
    04BB : 2A;
    04BC : ED;
    04BD : F3;
    04BE : 03;
    04BF : 31;
    04C0 : E6;
    04C1 : E3;
    04C2 : CD;
    04C3 : F1;
    04C4 : 0B;
    04C5 : F3;
    04C6 : 04;
    04C7 : 05;
    04C8 : 1D;
    04C9 : 08;
    04CA : 2B;
    04CB : 1D;
    04CC : 0C;
    04CD : 01;
    04CE : 1B;
    04CF : 14;
    04D0 : 06;
    04D1 : 0A;
    04D2 : FA;
    04D3 : 33;
    04D4 : 14;
    04D5 : 07;
    04D6 : FF;
    04D7 : 18;
    04D8 : FC;
    04D9 : 0D;
    04DA : EE;
    04DB : 00;
    04DC : D4;
    04DD : DB;
    04DE : E9;
    04DF : D9;
    04E0 : E6;
    04E1 : DC;
    04E2 : D9;
    04E3 : DB;
    04E4 : EB;
    04E5 : E9;
    04E6 : F9;
    04E7 : 01;
    04E8 : ED;
    04E9 : E7;
    04EA : EE;
    04EB : 14;
    04EC : 03;
    04ED : E6;
    04EE : 02;
    04EF : D9;
    04F0 : 19;
    04F1 : 09;
    04F2 : 10;
    04F3 : F2;
    04F4 : 1B;
    04F5 : FF;
    04F6 : 0B;
    04F7 : F8;
    04F8 : D0;
    04F9 : D6;
    04FA : ED;
    04FB : 15;
    04FC : B9;
    04FD : C6;
    04FE : F5;
    04FF : 04;
    0500 : 1E;
    0501 : 0F;
    0502 : 0D;
    0503 : 05;
    0504 : 21;
    0505 : F8;
    0506 : ED;
    0507 : F3;
    0508 : E8;
    0509 : E6;
    050A : DB;
    050B : EA;
    050C : E2;
    050D : E7;
    050E : FB;
    050F : CA;
    0510 : 08;
    0511 : FD;
    0512 : E8;
    0513 : E6;
    0514 : 0F;
    0515 : F9;
    0516 : F3;
    0517 : F4;
    0518 : F6;
    0519 : 09;
    051A : F5;
    051B : 02;
    051C : 0C;
    051D : 2D;
    051E : 13;
    051F : 06;
    0520 : E6;
    0521 : E8;
    0522 : FA;
    0523 : DC;
    0524 : F9;
    0525 : EC;
    0526 : FE;
    0527 : 0C;
    0528 : 04;
    0529 : E0;
    052A : F2;
    052B : 2B;
    052C : F6;
    052D : 16;
    052E : 0C;
    052F : F1;
    0530 : 0F;
    0531 : FA;
    0532 : FA;
    0533 : 33;
    0534 : EB;
    0535 : FE;
    0536 : F2;
    0537 : 13;
    0538 : F8;
    0539 : 0C;
    053A : EC;
    053B : FE;
    053C : 1A;
    053D : D2;
    053E : FD;
    053F : DC;
    0540 : E1;
    0541 : E1;
    0542 : FA;
    0543 : E2;
    0544 : F6;
    0545 : 10;
    0546 : 16;
    0547 : EC;
    0548 : 1A;
    0549 : 0D;
    054A : 13;
    054B : F5;
    054C : F4;
    054D : FD;
    054E : DC;
    054F : E1;
    0550 : DF;
    0551 : E0;
    0552 : E0;
    0553 : D3;
    0554 : 1E;
    0555 : 21;
    0556 : F5;
    0557 : EB;
    0558 : FF;
    0559 : 0B;
    055A : FA;
    055B : FB;
    055C : 3E;
    055D : 3E;
    055E : 29;
    055F : 19;
    0560 : 10;
    0561 : 02;
    0562 : FF;
    0563 : 17;
    0564 : 0E;
    0565 : 18;
    0566 : FE;
    0567 : 0B;
    0568 : 0D;
    0569 : FE;
    056A : 07;
    056B : 17;
    056C : 0A;
    056D : 06;
    056E : 03;
    056F : 02;
    0570 : FA;
    0571 : 05;
    0572 : F9;
    0573 : 18;
    0574 : F5;
    0575 : D8;
    0576 : F3;
    0577 : F6;
    0578 : 0D;
    0579 : 04;
    057A : 01;
    057B : F6;
    057C : DA;
    057D : D9;
    057E : D2;
    057F : C2;
    0580 : 10;
    0581 : 0E;
    0582 : 1C;
    0583 : 17;
    0584 : F7;
    0585 : 06;
    0586 : 0F;
    0587 : 26;
    0588 : 04;
    0589 : F9;
    058A : FA;
    058B : 18;
    058C : FF;
    058D : F2;
    058E : 04;
    058F : 1C;
    0590 : 00;
    0591 : 14;
    0592 : 16;
    0593 : 2E;
    0594 : F2;
    0595 : 02;
    0596 : 0D;
    0597 : 14;
    0598 : 09;
    0599 : FD;
    059A : 13;
    059B : FA;
    059C : 14;
    059D : 38;
    059E : 34;
    059F : F7;
    05A0 : F1;
    05A1 : E6;
    05A2 : FF;
    05A3 : FE;
    05A4 : F5;
    05A5 : F0;
    05A6 : CF;
    05A7 : EC;
    05A8 : 11;
    05A9 : EE;
    05AA : F9;
    05AB : 2E;
    05AC : E7;
    05AD : CA;
    05AE : D5;
    05AF : 28;
    05B0 : EC;
    05B1 : FD;
    05B2 : 0E;
    05B3 : 0A;
    05B4 : FB;
    05B5 : 0C;
    05B6 : 0C;
    05B7 : 04;
    05B8 : FA;
    05B9 : 05;
    05BA : 01;
    05BB : F3;
    05BC : 1F;
    05BD : 11;
    05BE : 1F;
    05BF : 05;
    05C0 : EC;
    05C1 : E6;
    05C2 : F0;
    05C3 : ED;
    05C4 : 03;
    05C5 : FA;
    05C6 : 09;
    05C7 : FA;
    05C8 : 26;
    05C9 : 0C;
    05CA : ED;
    05CB : D3;
    05CC : 28;
    05CD : 0C;
    05CE : F9;
    05CF : E4;
    05D0 : 1F;
    05D1 : 20;
    05D2 : 26;
    05D3 : 17;
    05D4 : 1C;
    05D5 : 01;
    05D6 : 10;
    05D7 : E9;
    05D8 : 31;
    05D9 : 0D;
    05DA : FC;
    05DB : D3;
    05DC : EF;
    05DD : FA;
    05DE : F7;
    05DF : C8;
    05E0 : F5;
    05E1 : D0;
    05E2 : E9;
    05E3 : D8;
    05E4 : 14;
    05E5 : EB;
    05E6 : F8;
    05E7 : E4;
    05E8 : F8;
    05E9 : FF;
    05EA : F0;
    05EB : EE;
    05EC : F7;
    05ED : E8;
    05EE : DD;
    05EF : F8;
    05F0 : 12;
    05F1 : 06;
    05F2 : 18;
    05F3 : 23;
    05F4 : 0E;
    05F5 : 14;
    05F6 : 10;
    05F7 : 13;
    05F8 : 03;
    05F9 : FD;
    05FA : 0E;
    05FB : 14;
    05FC : E3;
    05FD : 02;
    05FE : 01;
    05FF : E2;
    0600 : 1D;
    0601 : 07;
    0602 : 06;
    0603 : FE;
    0604 : 27;
    0605 : 18;
    0606 : 15;
    0607 : 2C;
    0608 : 26;
    0609 : 28;
    060A : 11;
    060B : 1C;
    060C : 24;
    060D : 1B;
    060E : ED;
    060F : 0E;
    0610 : EF;
    0611 : FB;
    0612 : F6;
    0613 : F3;
    0614 : 05;
    0615 : FA;
    0616 : FB;
    0617 : 0E;
    0618 : 02;
    0619 : F4;
    061A : FB;
    061B : E6;
    061C : 0E;
    061D : E5;
    061E : 03;
    061F : ED;
    0620 : 04;
    0621 : 05;
    0622 : E3;
    0623 : E9;
    0624 : 24;
    0625 : 11;
    0626 : 13;
    0627 : 03;
    0628 : 29;
    0629 : 14;
    062A : 02;
    062B : 01;
    062C : 0F;
    062D : FA;
    062E : FB;
    062F : F0;
    0630 : 05;
    0631 : 03;
    0632 : FF;
    0633 : 05;
    0634 : FF;
    0635 : 05;
    0636 : 21;
    0637 : 26;
    0638 : 20;
    0639 : 0F;
    063A : 0B;
    063B : 16;
    063C : 14;
    063D : 35;
    063E : 27;
    063F : 05;
    0640 : 06;
    0641 : 19;
    0642 : FB;
    0643 : 16;
    0644 : 22;
    0645 : 1F;
    0646 : 03;
    0647 : 2B;
    0648 : 09;
    0649 : 14;
    064A : 07;
    064B : 0D;
    064C : 06;
    064D : 05;
    064E : 19;
    064F : 26;
    0650 : 3C;
    0651 : 09;
    0652 : 08;
    0653 : 0B;
    0654 : 35;
    0655 : 25;
    0656 : 1C;
    0657 : 11;
    0658 : 15;
    0659 : 0D;
    065A : FF;
    065B : 04;
    065C : B5;
    065D : C6;
    065E : CD;
    065F : D4;
    0660 : 01;
    0661 : F4;
    0662 : 03;
    0663 : 01;
    0664 : FD;
    0665 : 08;
    0666 : FB;
    0667 : 0E;
    0668 : 08;
    0669 : 06;
    066A : 06;
    066B : 02;
    066C : 02;
    066D : F9;
    066E : E1;
    066F : 01;
    0670 : FE;
    0671 : 04;
    0672 : FA;
    0673 : FF;
    0674 : 07;
    0675 : 08;
    0676 : 24;
    0677 : 20;
    0678 : 22;
    0679 : 16;
    067A : F8;
    067B : 1C;
    067C : 40;
    067D : 06;
    067E : 25;
    067F : 3B;
    0680 : F3;
    0681 : F4;
    0682 : 09;
    0683 : 22;
    0684 : FC;
    0685 : EC;
    0686 : 05;
    0687 : 32;
    0688 : F9;
    0689 : 09;
    068A : FB;
    068B : 1C;
    068C : FB;
    068D : F1;
    068E : FC;
    068F : F5;
    0690 : F6;
    0691 : 04;
    0692 : 07;
    0693 : 09;
    0694 : F5;
    0695 : 08;
    0696 : 1C;
    0697 : 11;
    0698 : F0;
    0699 : 02;
    069A : 0F;
    069B : 04;
    069C : F3;
    069D : CD;
    069E : DB;
    069F : F8;
    06A0 : C0;
    06A1 : F7;
    06A2 : E4;
    06A3 : E2;
    06A4 : D3;
    06A5 : F0;
    06A6 : 20;
    06A7 : 21;
    06A8 : C8;
    06A9 : FF;
    06AA : 35;
    06AB : 10;
    06AC : 04;
    06AD : 0F;
    06AE : 4B;
    06AF : 0E;
    06B0 : EA;
    06B1 : FC;
    06B2 : F3;
    06B3 : 28;
    06B4 : 0E;
    06B5 : 07;
    06B6 : F2;
    06B7 : 0D;
    06B8 : 04;
    06B9 : F3;
    06BA : FF;
    06BB : 00;
    06BC : FC;
    06BD : F3;
    06BE : EC;
    06BF : E3;
    06C0 : 14;
    06C1 : F7;
    06C2 : 06;
    06C3 : 2D;
    06C4 : 07;
    06C5 : 13;
    06C6 : F6;
    06C7 : 22;
    06C8 : 13;
    06C9 : 15;
    06CA : 03;
    06CB : 0D;
    06CC : 03;
    06CD : D2;
    06CE : DE;
    06CF : F5;
    06D0 : CF;
    06D1 : E5;
    06D2 : DB;
    06D3 : F2;
    06D4 : 02;
    06D5 : ED;
    06D6 : 00;
    06D7 : FE;
    06D8 : 02;
    06D9 : F7;
    06DA : 0A;
    06DB : 1E;
    06DC : 35;
    06DD : 26;
    06DE : 24;
    06DF : 48;
    06E0 : D5;
    06E1 : 05;
    06E2 : 18;
    06E3 : FD;
    06E4 : 05;
    06E5 : F4;
    06E6 : 1C;
    06E7 : DF;
    06E8 : 1C;
    06E9 : 03;
    06EA : 1E;
    06EB : 00;
    06EC : 06;
    06ED : F9;
    06EE : E1;
    06EF : EB;
    06F0 : ED;
    06F1 : 03;
    06F2 : FD;
    06F3 : EF;
    06F4 : 11;
    06F5 : 03;
    06F6 : FF;
    06F7 : FE;
    06F8 : 1C;
    06F9 : 00;
    06FA : 0B;
    06FB : 02;
    06FC : F5;
    06FD : 03;
    06FE : 0C;
    06FF : 05;
    0700 : FF;
    0701 : 29;
    0702 : 37;
    0703 : 23;
    0704 : 24;
    0705 : 02;
    0706 : 1B;
    0707 : 23;
    0708 : F4;
    0709 : 05;
    070A : 06;
    070B : 14;
    070C : FD;
    070D : 10;
    070E : 06;
    070F : 13;
    0710 : 00;
    0711 : D1;
    0712 : C3;
    0713 : E1;
    0714 : F9;
    0715 : ED;
    0716 : EA;
    0717 : D3;
    0718 : 00;
    0719 : 18;
    071A : F6;
    071B : F3;
    071C : 01;
    071D : E1;
    071E : EF;
    071F : E8;
    0720 : 29;
    0721 : 11;
    0722 : 09;
    0723 : 17;
    0724 : 2F;
    0725 : 12;
    0726 : 06;
    0727 : E4;
    0728 : 0C;
    0729 : 1A;
    072A : 0D;
    072B : 2B;
    072C : 14;
    072D : F2;
    072E : 16;
    072F : 22;
    0730 : C9;
    0731 : E3;
    0732 : F0;
    0733 : 16;
    0734 : B1;
    0735 : C5;
    0736 : 00;
    0737 : 1C;
    0738 : C5;
    0739 : DE;
    073A : 00;
    073B : 17;
    073C : DB;
    073D : FD;
    073E : 01;
    073F : 06;
    0740 : FB;
    0741 : 14;
    0742 : 00;
    0743 : 0D;
    0744 : FA;
    0745 : 18;
    0746 : 0C;
    0747 : 03;
    0748 : FB;
    0749 : F8;
    074A : 0B;
    074B : 1E;
    074C : 1F;
    074D : 14;
    074E : 14;
    074F : 24;
    0750 : 07;
    0751 : FC;
    0752 : 1C;
    0753 : 13;
    0754 : F1;
    0755 : 08;
    0756 : FB;
    0757 : FF;
    0758 : 11;
    0759 : 1D;
    075A : 40;
    075B : 27;
    075C : DF;
    075D : F3;
    075E : 12;
    075F : 05;
    0760 : 12;
    0761 : FB;
    0762 : 04;
    0763 : FB;
    0764 : FE;
    0765 : 09;
    0766 : E5;
    0767 : 0E;
    0768 : EF;
    0769 : F9;
    076A : 00;
    076B : FE;
    076C : F7;
    076D : 06;
    076E : E4;
    076F : FD;
    0770 : DE;
    0771 : 09;
    0772 : F9;
    0773 : 11;
    0774 : 12;
    0775 : EF;
    0776 : 10;
    0777 : 21;
    0778 : FE;
    0779 : 0B;
    077A : 01;
    077B : 1F;
    077C : 11;
    077D : 20;
    077E : 0B;
    077F : 34;
    0780 : 03;
    0781 : 00;
    0782 : 00;
    0783 : F1;
    0784 : 22;
    0785 : 20;
    0786 : 06;
    0787 : 02;
    0788 : 16;
    0789 : 0C;
    078A : 26;
    078B : 09;
    078C : 22;
    078D : 0D;
    078E : 0D;
    078F : 0F;
    0790 : EC;
    0791 : D4;
    0792 : D9;
    0793 : 0A;
    0794 : FC;
    0795 : E0;
    0796 : D3;
    0797 : FE;
    0798 : F6;
    0799 : E5;
    079A : D8;
    079B : 0B;
    079C : F0;
    079D : F2;
    079E : D7;
    079F : E2;
    07A0 : 23;
    07A1 : 39;
    07A2 : 06;
    07A3 : F2;
    07A4 : 45;
    07A5 : 1A;
    07A6 : 1A;
    07A7 : 10;
    07A8 : 28;
    07A9 : 23;
    07AA : 24;
    07AB : 03;
    07AC : 47;
    07AD : 11;
    07AE : 48;
    07AF : 18;
    07B0 : 03;
    07B1 : E1;
    07B2 : D6;
    07B3 : F9;
    07B4 : 11;
    07B5 : 03;
    07B6 : FC;
    07B7 : DE;
    07B8 : 18;
    07B9 : FC;
    07BA : E7;
    07BB : 02;
    07BC : FA;
    07BD : F7;
    07BE : FC;
    07BF : FB;
    07C0 : E4;
    07C1 : 07;
    07C2 : F9;
    07C3 : 20;
    07C4 : 0D;
    07C5 : 16;
    07C6 : 09;
    07C7 : 12;
    07C8 : 10;
    07C9 : 18;
    07CA : FD;
    07CB : 14;
    07CC : 25;
    07CD : FA;
    07CE : F5;
    07CF : 12;
    07D0 : 0C;
    07D1 : FE;
    07D2 : 06;
    07D3 : 45;
    07D4 : FE;
    07D5 : EC;
    07D6 : 0D;
    07D7 : 0A;
    07D8 : FC;
    07D9 : F2;
    07DA : F5;
    07DB : 03;
    07DC : 12;
    07DD : 20;
    07DE : F8;
    07DF : E9;
    07E0 : 14;
    07E1 : 01;
    07E2 : 10;
    07E3 : E5;
    07E4 : 30;
    07E5 : 2C;
    07E6 : 32;
    07E7 : 06;
    07E8 : 16;
    07E9 : 24;
    07EA : 21;
    07EB : 32;
    07EC : 1C;
    07ED : FC;
    07EE : 0F;
    07EF : ED;
    07F0 : 29;
    07F1 : 11;
    07F2 : F3;
    07F3 : EE;
    07F4 : 2D;
    07F5 : F0;
    07F6 : 0A;
    07F7 : E8;
    07F8 : 3B;
    07F9 : 1A;
    07FA : 0F;
    07FB : EB;
    07FC : 0C;
    07FD : ED;
    07FE : FC;
    07FF : 19;
    0800 : 1B;
    0801 : 12;
    0802 : E9;
    0803 : D0;
    0804 : DF;
    0805 : E6;
    0806 : ED;
    0807 : E1;
    0808 : E5;
    0809 : F2;
    080A : F0;
    080B : E1;
    080C : 14;
    080D : EC;
    080E : E6;
    080F : E4;
    0810 : 01;
    0811 : 1B;
    0812 : 08;
    0813 : 1E;
    0814 : F7;
    0815 : FF;
    0816 : FB;
    0817 : 11;
    0818 : F2;
    0819 : 12;
    081A : 10;
    081B : 19;
    081C : F6;
    081D : 36;
    081E : 1E;
    081F : 17;
    0820 : 05;
    0821 : 2A;
    0822 : 2F;
    0823 : 05;
    0824 : 00;
    0825 : F8;
    0826 : FC;
    0827 : 25;
    0828 : 01;
    0829 : ED;
    082A : 08;
    082B : 27;
    082C : 18;
    082D : 1E;
    082E : 37;
    082F : 1C;
    0830 : 14;
    0831 : 26;
    0832 : 19;
    0833 : E8;
    0834 : E1;
    0835 : 00;
    0836 : E0;
    0837 : D7;
    0838 : EA;
    0839 : EA;
    083A : EB;
    083B : EE;
    083C : EF;
    083D : B9;
    083E : D9;
    083F : D6;
    0840 : FE;
    0841 : 1B;
    0842 : 04;
    0843 : F1;
    0844 : 04;
    0845 : F0;
    0846 : F1;
    0847 : ED;
    0848 : 0F;
    0849 : FA;
    084A : F5;
    084B : EA;
    084C : 15;
    084D : F8;
    084E : 04;
    084F : 11;
    0850 : F1;
    0851 : F9;
    0852 : FB;
    0853 : E4;
    0854 : EA;
    0855 : F4;
    0856 : 19;
    0857 : F8;
    0858 : E3;
    0859 : E7;
    085A : 0D;
    085B : FB;
    085C : 1E;
    085D : 1F;
    085E : 2A;
    085F : 40;
    0860 : F9;
    0861 : F2;
    0862 : 0C;
    0863 : 10;
    0864 : E3;
    0865 : F9;
    0866 : F1;
    0867 : FD;
    0868 : EE;
    0869 : EB;
    086A : FD;
    086B : FB;
    086C : E4;
    086D : 1E;
    086E : 28;
    086F : 16;
    0870 : 25;
    0871 : 13;
    0872 : ED;
    0873 : F4;
    0874 : F9;
    0875 : CE;
    0876 : C8;
    0877 : D1;
    0878 : EC;
    0879 : CB;
    087A : F0;
    087B : C9;
    087C : B3;
    087D : BD;
    087E : BC;
    087F : D4;
    0880 : 1A;
    0881 : 03;
    0882 : 04;
    0883 : 08;
    0884 : 1E;
    0885 : 12;
    0886 : 1F;
    0887 : 03;
    0888 : FC;
    0889 : 1B;
    088A : 07;
    088B : 0B;
    088C : 09;
    088D : 39;
    088E : 25;
    088F : 26;
    0890 : 07;
    0891 : 1B;
    0892 : F9;
    0893 : F9;
    0894 : FE;
    0895 : FF;
    0896 : E7;
    0897 : F7;
    0898 : 1F;
    0899 : 00;
    089A : 08;
    089B : 0C;
    089C : 13;
    089D : 31;
    089E : 36;
    089F : 19;
    08A0 : 0F;
    08A1 : 02;
    08A2 : 30;
    08A3 : 41;
    08A4 : F4;
    08A5 : FE;
    08A6 : 02;
    08A7 : 1E;
    08A8 : 00;
    08A9 : CF;
    08AA : 14;
    08AB : 15;
    08AC : FB;
    08AD : B8;
    08AE : B4;
    08AF : CB;
    08B0 : 0C;
    08B1 : 07;
    08B2 : 04;
    08B3 : 06;
    08B4 : 0B;
    08B5 : FF;
    08B6 : FE;
    08B7 : EF;
    08B8 : F8;
    08B9 : F5;
    08BA : F8;
    08BB : E7;
    08BC : 0B;
    08BD : 34;
    08BE : 28;
    08BF : 0C;
    08C0 : 0C;
    08C1 : 1B;
    08C2 : 2A;
    08C3 : 0C;
    08C4 : 0D;
    08C5 : 1B;
    08C6 : 12;
    08C7 : D1;
    08C8 : F3;
    08C9 : F0;
    08CA : 0D;
    08CB : D7;
    08CC : 06;
    08CD : 18;
    08CE : 25;
    08CF : FB;
    08D0 : 32;
    08D1 : 1A;
    08D2 : 12;
    08D3 : E5;
    08D4 : F8;
    08D5 : F4;
    08D6 : 00;
    08D7 : C7;
    08D8 : E2;
    08D9 : F9;
    08DA : 01;
    08DB : D8;
    08DC : C4;
    08DD : DF;
    08DE : F6;
    08DF : F1;
    08E0 : FE;
    08E1 : 17;
    08E2 : 04;
    08E3 : 2E;
    08E4 : 03;
    08E5 : E2;
    08E6 : F4;
    08E7 : FC;
    08E8 : F9;
    08E9 : 25;
    08EA : FE;
    08EB : E6;
    08EC : 07;
    08ED : 2B;
    08EE : 15;
    08EF : 42;
    08F0 : E9;
    08F1 : 07;
    08F2 : 0B;
    08F3 : 06;
    08F4 : 0A;
    08F5 : 00;
    08F6 : 15;
    08F7 : 03;
    08F8 : 1F;
    08F9 : 13;
    08FA : 06;
    08FB : 0C;
    08FC : 20;
    08FD : 1C;
    08FE : 27;
    08FF : 1D;
    0900 : F9;
    0901 : EC;
    0902 : 18;
    0903 : 12;
    0904 : 22;
    0905 : 23;
    0906 : 13;
    0907 : 1B;
    0908 : 03;
    0909 : 22;
    090A : 05;
    090B : 17;
    090C : 16;
    090D : 12;
    090E : F5;
    090F : D4;
    0910 : 04;
    0911 : FE;
    0912 : EF;
    0913 : F8;
    0914 : 13;
    0915 : 13;
    0916 : 0C;
    0917 : 0C;
    0918 : F4;
    0919 : F4;
    091A : FC;
    091B : F8;
    091C : F4;
    091D : E5;
    091E : F9;
    091F : 01;
    0920 : 4F;
    0921 : 3D;
    0922 : 2B;
    0923 : 63;
    0924 : E3;
    0925 : EC;
    0926 : F8;
    0927 : 0B;
    0928 : CD;
    0929 : 00;
    092A : 0B;
    092B : F4;
    092C : FD;
    092D : 08;
    092E : FE;
    092F : FB;
    0930 : CC;
    0931 : D0;
    0932 : F7;
    0933 : E5;
    0934 : 14;
    0935 : 09;
    0936 : 11;
    0937 : 18;
    0938 : 2E;
    0939 : 11;
    093A : 0A;
    093B : 0E;
    093C : 2D;
    093D : 08;
    093E : 00;
    093F : 0A;
    0940 : 1A;
    0941 : 06;
    0942 : F6;
    0943 : F5;
    0944 : 21;
    0945 : 17;
    0946 : E2;
    0947 : E4;
    0948 : 25;
    0949 : 0B;
    094A : 05;
    094B : 02;
    094C : F8;
    094D : 15;
    094E : 0A;
    094F : 2D;
    0950 : 00;
    0951 : 04;
    0952 : 1B;
    0953 : 1D;
    0954 : F8;
    0955 : F9;
    0956 : FE;
    0957 : 1D;
    0958 : F2;
    0959 : E5;
    095A : F9;
    095B : 06;
    095C : F6;
    095D : 08;
    095E : 06;
    095F : E9;
    0960 : 00;
    0961 : FE;
    0962 : 0C;
    0963 : F9;
    0964 : 18;
    0965 : 0C;
    0966 : 12;
    0967 : 03;
    0968 : ED;
    0969 : 0D;
    096A : DE;
    096B : 03;
    096C : 01;
    096D : 10;
    096E : 02;
    096F : 0F;
    0970 : 1A;
    0971 : FD;
    0972 : 12;
    0973 : 20;
    0974 : 32;
    0975 : 23;
    0976 : 21;
    0977 : 13;
    0978 : FF;
    0979 : FC;
    097A : 18;
    097B : 0B;
    097C : FD;
    097D : 05;
    097E : EE;
    097F : 05;
    0980 : 04;
    0981 : 08;
    0982 : EF;
    0983 : C2;
    0984 : EE;
    0985 : F8;
    0986 : EA;
    0987 : C5;
    0988 : FA;
    0989 : F9;
    098A : 15;
    098B : 0E;
    098C : E7;
    098D : FE;
    098E : 0D;
    098F : 36;
    0990 : F4;
    0991 : C8;
    0992 : C2;
    0993 : C1;
    0994 : 0A;
    0995 : F2;
    0996 : F1;
    0997 : FC;
    0998 : 1F;
    0999 : 2A;
    099A : 12;
    099B : 07;
    099C : 1B;
    099D : 26;
    099E : 10;
    099F : FD;
    09A0 : 69;
    09A1 : 37;
    09A2 : 20;
    09A3 : 2D;
    09A4 : 2E;
    09A5 : 17;
    09A6 : 06;
    09A7 : 33;
    09A8 : 11;
    09A9 : EC;
    09AA : FD;
    09AB : EE;
    09AC : 0F;
    09AD : FF;
    09AE : 04;
    09AF : 0E;
    09B0 : 1F;
    09B1 : 06;
    09B2 : F5;
    09B3 : EA;
    09B4 : 14;
    09B5 : 0A;
    09B6 : EF;
    09B7 : F4;
    09B8 : 0C;
    09B9 : F9;
    09BA : F8;
    09BB : FD;
    09BC : FD;
    09BD : FD;
    09BE : 07;
    09BF : 05;
    09C0 : 11;
    09C1 : 1C;
    09C2 : 15;
    09C3 : F8;
    09C4 : 04;
    09C5 : 11;
    09C6 : F5;
    09C7 : 14;
    09C8 : 08;
    09C9 : F9;
    09CA : 06;
    09CB : 23;
    09CC : FB;
    09CD : 1A;
    09CE : 09;
    09CF : 27;
    09D0 : 05;
    09D1 : F7;
    09D2 : 09;
    09D3 : 2B;
    09D4 : 10;
    09D5 : 00;
    09D6 : F2;
    09D7 : 2E;
    09D8 : 02;
    09D9 : FD;
    09DA : FE;
    09DB : 12;
    09DC : D4;
    09DD : F5;
    09DE : CA;
    09DF : A5;
    09E0 : 14;
    09E1 : 24;
    09E2 : 36;
    09E3 : 2F;
    09E4 : 19;
    09E5 : 0E;
    09E6 : 0A;
    09E7 : 0E;
    09E8 : ED;
    09E9 : EF;
    09EA : F6;
    09EB : 10;
    09EC : F3;
    09ED : F8;
    09EE : 15;
    09EF : 27;
    09F0 : 2E;
    09F1 : 31;
    09F2 : 03;
    09F3 : FB;
    09F4 : 0F;
    09F5 : 0B;
    09F6 : 1C;
    09F7 : 2F;
    09F8 : F9;
    09F9 : 00;
    09FA : F0;
    09FB : 23;
    09FC : E4;
    09FD : E0;
    09FE : E8;
    09FF : 1C;
    0A00 : C7;
    0A01 : F6;
    0A02 : 29;
    0A03 : 02;
    0A04 : 05;
    0A05 : 06;
    0A06 : 20;
    0A07 : FB;
    0A08 : 13;
    0A09 : 05;
    0A0A : 16;
    0A0B : EF;
    0A0C : FB;
    0A0D : 0A;
    0A0E : 31;
    0A0F : 1D;
    0A10 : 0E;
    0A11 : 1B;
    0A12 : 24;
    0A13 : FE;
    0A14 : 02;
    0A15 : 0D;
    0A16 : 18;
    0A17 : 02;
    0A18 : ED;
    0A19 : F6;
    0A1A : F4;
    0A1B : E9;
    0A1C : 04;
    0A1D : 06;
    0A1E : 0F;
    0A1F : F2;
    0A20 : 36;
    0A21 : 38;
    0A22 : 6B;
    0A23 : 58;
    0A24 : DC;
    0A25 : CB;
    0A26 : EC;
    0A27 : 07;
    0A28 : C8;
    0A29 : DF;
    0A2A : E0;
    0A2B : D9;
    0A2C : F1;
    0A2D : ED;
    0A2E : E8;
    0A2F : F7;
    0A30 : E8;
    0A31 : DF;
    0A32 : E8;
    0A33 : 15;
    0A34 : 03;
    0A35 : 19;
    0A36 : 0B;
    0A37 : 01;
    0A38 : E6;
    0A39 : 02;
    0A3A : 14;
    0A3B : 06;
    0A3C : D2;
    0A3D : 15;
    0A3E : 23;
    0A3F : 12;
    0A40 : E3;
    0A41 : DA;
    0A42 : 11;
    0A43 : 1E;
    0A44 : DC;
    0A45 : E9;
    0A46 : 0B;
    0A47 : 09;
    0A48 : CA;
    0A49 : F2;
    0A4A : 14;
    0A4B : FC;
    0A4C : 11;
    0A4D : 12;
    0A4E : 04;
    0A4F : FA;
    0A50 : E1;
    0A51 : 1A;
    0A52 : FE;
    0A53 : 08;
    0A54 : D6;
    0A55 : DF;
    0A56 : EF;
    0A57 : E6;
    0A58 : E3;
    0A59 : F5;
    0A5A : D1;
    0A5B : C7;
    0A5C : 0B;
    0A5D : E7;
    0A5E : 08;
    0A5F : 05;
    0A60 : 1C;
    0A61 : EE;
    0A62 : 07;
    0A63 : F4;
    0A64 : 12;
    0A65 : FD;
    0A66 : 0E;
    0A67 : 1A;
    0A68 : FB;
    0A69 : 13;
    0A6A : 18;
    0A6B : 1D;
    0A6C : 1D;
    0A6D : 14;
    0A6E : 11;
    0A6F : FD;
    0A70 : FA;
    0A71 : 19;
    0A72 : FE;
    0A73 : F0;
    0A74 : 1F;
    0A75 : 25;
    0A76 : 18;
    0A77 : EA;
    0A78 : 09;
    0A79 : 18;
    0A7A : 0F;
    0A7B : EB;
    0A7C : F6;
    0A7D : 1E;
    0A7E : 1E;
    0A7F : F9;
    0A80 : 20;
    0A81 : 2B;
    0A82 : 0B;
    0A83 : C1;
    0A84 : 0F;
    0A85 : 15;
    0A86 : 0D;
    0A87 : E9;
    0A88 : F6;
    0A89 : 11;
    0A8A : F7;
    0A8B : F8;
    0A8C : 1E;
    0A8D : 0C;
    0A8E : F0;
    0A8F : F3;
    0A90 : EB;
    0A91 : CF;
    0A92 : C4;
    0A93 : E2;
    0A94 : 00;
    0A95 : F2;
    0A96 : F1;
    0A97 : 0E;
    0A98 : F1;
    0A99 : 06;
    0A9A : F4;
    0A9B : FD;
    0A9C : EF;
    0A9D : 03;
    0A9E : F6;
    0A9F : EA;
    0AA0 : 25;
    0AA1 : 4C;
    0AA2 : 74;
    0AA3 : 4D;
    0AA4 : 2E;
    0AA5 : 21;
    0AA6 : 31;
    0AA7 : 0C;
    0AA8 : 29;
    0AA9 : F1;
    0AAA : E6;
    0AAB : F9;
    0AAC : ED;
    0AAD : F0;
    0AAE : 08;
    0AAF : E2;
    0AB0 : 1F;
    0AB1 : 34;
    0AB2 : 04;
    0AB3 : C8;
    0AB4 : EC;
    0AB5 : 03;
    0AB6 : 1C;
    0AB7 : E9;
    0AB8 : EC;
    0AB9 : F4;
    0ABA : 14;
    0ABB : 08;
    0ABC : FF;
    0ABD : 04;
    0ABE : F8;
    0ABF : FE;
    0AC0 : EF;
    0AC1 : F6;
    0AC2 : 1C;
    0AC3 : F8;
    0AC4 : EE;
    0AC5 : FC;
    0AC6 : 08;
    0AC7 : FA;
    0AC8 : FB;
    0AC9 : FB;
    0ACA : FE;
    0ACB : FB;
    0ACC : 0C;
    0ACD : 11;
    0ACE : FD;
    0ACF : 04;
    0AD0 : FA;
    0AD1 : 1D;
    0AD2 : 51;
    0AD3 : 5F;
    0AD4 : E8;
    0AD5 : 12;
    0AD6 : 26;
    0AD7 : 3A;
    0AD8 : F1;
    0AD9 : F2;
    0ADA : 0D;
    0ADB : F4;
    0ADC : 02;
    0ADD : FA;
    0ADE : 01;
    0ADF : F2;
    0AE0 : 21;
    0AE1 : 24;
    0AE2 : 1E;
    0AE3 : 0E;
    0AE4 : 17;
    0AE5 : 19;
    0AE6 : 08;
    0AE7 : 3A;
    0AE8 : F9;
    0AE9 : 10;
    0AEA : 0D;
    0AEB : FD;
    0AEC : FA;
    0AED : 2D;
    0AEE : 17;
    0AEF : 1B;
    0AF0 : F6;
    0AF1 : F0;
    0AF2 : 28;
    0AF3 : 04;
    0AF4 : 0B;
    0AF5 : 05;
    0AF6 : F2;
    0AF7 : F1;
    0AF8 : EB;
    0AF9 : 00;
    0AFA : E5;
    0AFB : EB;
    0AFC : 13;
    0AFD : 0F;
    0AFE : E5;
    0AFF : ED;
    0B00 : 17;
    0B01 : FC;
    0B02 : 27;
    0B03 : 0B;
    0B04 : 08;
    0B05 : 2F;
    0B06 : 00;
    0B07 : F9;
    0B08 : 19;
    0B09 : 0F;
    0B0A : FA;
    0B0B : E2;
    0B0C : 32;
    0B0D : 21;
    0B0E : 16;
    0B0F : 08;
    0B10 : FB;
    0B11 : 00;
    0B12 : F0;
    0B13 : FA;
    0B14 : 03;
    0B15 : 0F;
    0B16 : 14;
    0B17 : 11;
    0B18 : 0B;
    0B19 : E5;
    0B1A : F2;
    0B1B : 00;
    0B1C : DB;
    0B1D : EF;
    0B1E : ED;
    0B1F : DA;
    0B20 : 3C;
    0B21 : 35;
    0B22 : 21;
    0B23 : FB;
    0B24 : 26;
    0B25 : 30;
    0B26 : 10;
    0B27 : 1C;
    0B28 : 0B;
    0B29 : 20;
    0B2A : 17;
    0B2B : 1F;
    0B2C : FB;
    0B2D : F9;
    0B2E : 02;
    0B2F : 0A;
    0B30 : BF;
    0B31 : BA;
    0B32 : E5;
    0B33 : E3;
    0B34 : DE;
    0B35 : 0F;
    0B36 : F1;
    0B37 : F3;
    0B38 : E0;
    0B39 : 0D;
    0B3A : FA;
    0B3B : F9;
    0B3C : D3;
    0B3D : EC;
    0B3E : 03;
    0B3F : 0B;
    0B40 : E1;
    0B41 : 0A;
    0B42 : 2D;
    0B43 : 13;
    0B44 : 07;
    0B45 : 28;
    0B46 : 17;
    0B47 : 18;
    0B48 : FF;
    0B49 : 09;
    0B4A : 16;
    0B4B : 01;
    0B4C : F7;
    0B4D : 07;
    0B4E : 09;
    0B4F : 00;
    0B50 : 05;
    0B51 : 20;
    0B52 : 06;
    0B53 : 03;
    0B54 : D6;
    0B55 : E9;
    0B56 : F6;
    0B57 : 0F;
    0B58 : 9E;
    0B59 : AE;
    0B5A : E1;
    0B5B : 01;
    0B5C : D3;
    0B5D : CE;
    0B5E : EF;
    0B5F : FA;
    0B60 : 07;
    0B61 : FE;
    0B62 : 0C;
    0B63 : 03;
    0B64 : F6;
    0B65 : 16;
    0B66 : 07;
    0B67 : 07;
    0B68 : 09;
    0B69 : F6;
    0B6A : FA;
    0B6B : FF;
    0B6C : F9;
    0B6D : 10;
    0B6E : 0F;
    0B6F : F0;
    0B70 : F4;
    0B71 : 1F;
    0B72 : 1B;
    0B73 : 11;
    0B74 : 0E;
    0B75 : 24;
    0B76 : 3A;
    0B77 : 13;
    0B78 : F5;
    0B79 : 26;
    0B7A : 24;
    0B7B : F8;
    0B7C : FA;
    0B7D : 23;
    0B7E : 08;
    0B7F : 29;
    0B80 : E0;
    0B81 : F8;
    0B82 : 1F;
    0B83 : 26;
    0B84 : F6;
    0B85 : 13;
    0B86 : 16;
    0B87 : 0F;
    0B88 : 1E;
    0B89 : 20;
    0B8A : 11;
    0B8B : 01;
    0B8C : 18;
    0B8D : 1F;
    0B8E : FD;
    0B8F : 07;
    0B90 : 06;
    0B91 : F5;
    0B92 : F8;
    0B93 : EF;
    0B94 : F9;
    0B95 : F9;
    0B96 : CE;
    0B97 : E8;
    0B98 : 15;
    0B99 : 08;
    0B9A : 03;
    0B9B : EE;
    0B9C : E2;
    0B9D : F4;
    0B9E : DC;
    0B9F : F1;
    0BA0 : 4A;
    0BA1 : 45;
    0BA2 : 01;
    0BA3 : 01;
    0BA4 : 32;
    0BA5 : 28;
    0BA6 : 1B;
    0BA7 : 36;
    0BA8 : 5E;
    0BA9 : 02;
    0BAA : 04;
    0BAB : 22;
    0BAC : 26;
    0BAD : FB;
    0BAE : 14;
    0BAF : 16;
    0BB0 : 08;
    0BB1 : F2;
    0BB2 : 0B;
    0BB3 : 1D;
    0BB4 : 05;
    0BB5 : EF;
    0BB6 : 0B;
    0BB7 : 02;
    0BB8 : FC;
    0BB9 : 06;
    0BBA : F0;
    0BBB : E9;
    0BBC : 0F;
    0BBD : 06;
    0BBE : 0E;
    0BBF : EF;
    0BC0 : E2;
    0BC1 : 02;
    0BC2 : EA;
    0BC3 : FA;
    0BC4 : FA;
    0BC5 : F3;
    0BC6 : FF;
    0BC7 : FC;
    0BC8 : E6;
    0BC9 : F1;
    0BCA : E6;
    0BCB : EC;
    0BCC : BC;
    0BCD : EF;
    0BCE : FC;
    0BCF : D7;
    0BD0 : 04;
    0BD1 : DC;
    0BD2 : C7;
    0BD3 : C6;
    0BD4 : 20;
    0BD5 : EB;
    0BD6 : E0;
    0BD7 : B0;
    0BD8 : F3;
    0BD9 : F8;
    0BDA : 02;
    0BDB : 18;
    0BDC : EB;
    0BDD : 11;
    0BDE : 25;
    0BDF : 2C;
    0BE0 : FA;
    0BE1 : 08;
    0BE2 : 22;
    0BE3 : 2D;
    0BE4 : 12;
    0BE5 : 24;
    0BE6 : 15;
    0BE7 : 0A;
    0BE8 : 15;
    0BE9 : FA;
    0BEA : F6;
    0BEB : 1E;
    0BEC : 1E;
    0BED : 0D;
    0BEE : F5;
    0BEF : 1B;
    0BF0 : 12;
    0BF1 : 22;
    0BF2 : 0C;
    0BF3 : 08;
    0BF4 : 28;
    0BF5 : 19;
    0BF6 : 04;
    0BF7 : 02;
    0BF8 : 2C;
    0BF9 : FA;
    0BFA : F6;
    0BFB : 20;
    0BFC : 2A;
    0BFD : 28;
    0BFE : 06;
    0BFF : 26;
    0C00 : C9;
    0C01 : C2;
    0C02 : C2;
    0C03 : E9;
    0C04 : F0;
    0C05 : FD;
    0C06 : FA;
    0C07 : 05;
    0C08 : F2;
    0C09 : F4;
    0C0A : FC;
    0C0B : FB;
    0C0C : EB;
    0C0D : E7;
    0C0E : 11;
    0C0F : 25;
    0C10 : 44;
    0C11 : 30;
    0C12 : 26;
    0C13 : 2D;
    0C14 : 23;
    0C15 : 19;
    0C16 : 0C;
    0C17 : 1D;
    0C18 : 21;
    0C19 : 0B;
    0C1A : F8;
    0C1B : 03;
    0C1C : 05;
    0C1D : 00;
    0C1E : F2;
    0C1F : F6;
    0C20 : 35;
    0C21 : 26;
    0C22 : 32;
    0C23 : FD;
    0C24 : 19;
    0C25 : 10;
    0C26 : 08;
    0C27 : F4;
    0C28 : 20;
    0C29 : 17;
    0C2A : 09;
    0C2B : F2;
    0C2C : F5;
    0C2D : 0B;
    0C2E : FD;
    0C2F : DB;
    0C30 : 15;
    0C31 : FC;
    0C32 : E2;
    0C33 : F8;
    0C34 : 11;
    0C35 : 1D;
    0C36 : 0B;
    0C37 : 0A;
    0C38 : 0D;
    0C39 : 25;
    0C3A : 09;
    0C3B : 08;
    0C3C : 27;
    0C3D : 2C;
    0C3E : 13;
    0C3F : 12;
    0C40 : 11;
    0C41 : F3;
    0C42 : 05;
    0C43 : 03;
    0C44 : E6;
    0C45 : FB;
    0C46 : 04;
    0C47 : FB;
    0C48 : 09;
    0C49 : FE;
    0C4A : 16;
    0C4B : 17;
    0C4C : 07;
    0C4D : FB;
    0C4E : 01;
    0C4F : FE;
    0C50 : 1B;
    0C51 : 01;
    0C52 : 09;
    0C53 : 06;
    0C54 : 13;
    0C55 : 09;
    0C56 : F4;
    0C57 : F8;
    0C58 : EC;
    0C59 : EE;
    0C5A : F9;
    0C5B : FB;
    0C5C : C7;
    0C5D : E5;
    0C5E : D0;
    0C5F : E9;
    0C60 : 0C;
    0C61 : F7;
    0C62 : FD;
    0C63 : 13;
    0C64 : F4;
    0C65 : EB;
    0C66 : 1A;
    0C67 : 0E;
    0C68 : 0A;
    0C69 : 15;
    0C6A : 17;
    0C6B : 13;
    0C6C : 38;
    0C6D : 04;
    0C6E : F8;
    0C6F : 1A;
    0C70 : 00;
    0C71 : F5;
    0C72 : E3;
    0C73 : CF;
    0C74 : E4;
    0C75 : 00;
    0C76 : 1A;
    0C77 : F4;
    0C78 : 1C;
    0C79 : 0F;
    0C7A : 1F;
    0C7B : 26;
    0C7C : 43;
    0C7D : 2C;
    0C7E : 22;
    0C7F : 26;
    0C80 : 1D;
    0C81 : 0B;
    0C82 : 04;
    0C83 : FF;
    0C84 : F0;
    0C85 : 07;
    0C86 : 0C;
    0C87 : 18;
    0C88 : F9;
    0C89 : E6;
    0C8A : F6;
    0C8B : 08;
    0C8C : 03;
    0C8D : F5;
    0C8E : EF;
    0C8F : E2;
    0C90 : 0F;
    0C91 : 0A;
    0C92 : 09;
    0C93 : 10;
    0C94 : 12;
    0C95 : 02;
    0C96 : 10;
    0C97 : 1E;
    0C98 : FB;
    0C99 : F1;
    0C9A : 02;
    0C9B : 07;
    0C9C : E8;
    0C9D : E7;
    0C9E : 00;
    0C9F : 22;
    0CA0 : C5;
    0CA1 : 20;
    0CA2 : 1A;
    0CA3 : 3F;
    0CA4 : FB;
    0CA5 : 30;
    0CA6 : 1A;
    0CA7 : 05;
    0CA8 : F3;
    0CA9 : EF;
    0CAA : EA;
    0CAB : DC;
    0CAC : BB;
    0CAD : E9;
    0CAE : F8;
    0CAF : EB;
    0CB0 : 1C;
    0CB1 : 20;
    0CB2 : 27;
    0CB3 : 1C;
    0CB4 : F0;
    0CB5 : 1B;
    0CB6 : 05;
    0CB7 : 1A;
    0CB8 : 1C;
    0CB9 : 24;
    0CBA : 1B;
    0CBB : 06;
    0CBC : 0C;
    0CBD : 13;
    0CBE : 06;
    0CBF : DC;
    0CC0 : 15;
    0CC1 : 08;
    0CC2 : FB;
    0CC3 : FD;
    0CC4 : 00;
    0CC5 : FE;
    0CC6 : FB;
    0CC7 : 17;
    0CC8 : 02;
    0CC9 : 04;
    0CCA : 0B;
    0CCB : 06;
    0CCC : DE;
    0CCD : FF;
    0CCE : FD;
    0CCF : 01;
    0CD0 : F1;
    0CD1 : 10;
    0CD2 : FF;
    0CD3 : FC;
    0CD4 : 01;
    0CD5 : 18;
    0CD6 : 1D;
    0CD7 : 1D;
    0CD8 : 1A;
    0CD9 : 19;
    0CDA : 0F;
    0CDB : 1E;
    0CDC : 3A;
    0CDD : 20;
    0CDE : 41;
    0CDF : 28;
    0CE0 : 11;
    0CE1 : 19;
    0CE2 : 03;
    0CE3 : EE;
    0CE4 : 14;
    0CE5 : 0F;
    0CE6 : 06;
    0CE7 : 07;
    0CE8 : 1C;
    0CE9 : 11;
    0CEA : 08;
    0CEB : E4;
    0CEC : 14;
    0CED : FE;
    0CEE : FB;
    0CEF : E7;
    0CF0 : 07;
    0CF1 : 19;
    0CF2 : FC;
    0CF3 : 23;
    0CF4 : F3;
    0CF5 : 0A;
    0CF6 : 14;
    0CF7 : 1C;
    0CF8 : 04;
    0CF9 : F1;
    0CFA : 10;
    0CFB : F4;
    0CFC : FB;
    0CFD : EE;
    0CFE : FF;
    0CFF : 14;
    0D00 : CD;
    0D01 : F2;
    0D02 : F2;
    0D03 : EC;
    0D04 : E6;
    0D05 : 1A;
    0D06 : EA;
    0D07 : F4;
    0D08 : C7;
    0D09 : F6;
    0D0A : EA;
    0D0B : 0A;
    0D0C : DB;
    0D0D : 07;
    0D0E : 04;
    0D0F : F5;
    0D10 : 05;
    0D11 : 1D;
    0D12 : 01;
    0D13 : EC;
    0D14 : 0E;
    0D15 : FD;
    0D16 : F0;
    0D17 : D4;
    0D18 : F4;
    0D19 : 1B;
    0D1A : FE;
    0D1B : F2;
    0D1C : F9;
    0D1D : 13;
    0D1E : 01;
    0D1F : 25;
    0D20 : 4E;
    0D21 : 14;
    0D22 : 11;
    0D23 : 2E;
    0D24 : E9;
    0D25 : 03;
    0D26 : E3;
    0D27 : FE;
    0D28 : F1;
    0D29 : F8;
    0D2A : 02;
    0D2B : 21;
    0D2C : DD;
    0D2D : 02;
    0D2E : 08;
    0D2F : 2D;
    0D30 : EC;
    0D31 : FB;
    0D32 : ED;
    0D33 : F7;
    0D34 : BF;
    0D35 : E5;
    0D36 : 1B;
    0D37 : 00;
    0D38 : E2;
    0D39 : EB;
    0D3A : 08;
    0D3B : 0B;
    0D3C : 08;
    0D3D : 13;
    0D3E : 0B;
    0D3F : 11;
    0D40 : F2;
    0D41 : E4;
    0D42 : EF;
    0D43 : EB;
    0D44 : DA;
    0D45 : 01;
    0D46 : FF;
    0D47 : F3;
    0D48 : 1D;
    0D49 : 06;
    0D4A : 1D;
    0D4B : 0B;
    0D4C : 2C;
    0D4D : 14;
    0D4E : 08;
    0D4F : DF;
    0D50 : 0B;
    0D51 : 02;
    0D52 : FE;
    0D53 : 07;
    0D54 : E8;
    0D55 : FD;
    0D56 : F9;
    0D57 : 13;
    0D58 : 03;
    0D59 : 05;
    0D5A : 0E;
    0D5B : 02;
    0D5C : 13;
    0D5D : 19;
    0D5E : 23;
    0D5F : 2E;
    0D60 : 03;
    0D61 : 0C;
    0D62 : FA;
    0D63 : 04;
    0D64 : F7;
    0D65 : 20;
    0D66 : 1D;
    0D67 : F5;
    0D68 : 02;
    0D69 : 2D;
    0D6A : 13;
    0D6B : 10;
    0D6C : 13;
    0D6D : 19;
    0D6E : 0C;
    0D6F : F3;
    0D70 : ED;
    0D71 : F0;
    0D72 : F6;
    0D73 : DB;
    0D74 : EB;
    0D75 : 06;
    0D76 : 0B;
    0D77 : 06;
    0D78 : FE;
    0D79 : F0;
    0D7A : F6;
    0D7B : 14;
    0D7C : 0A;
    0D7D : 03;
    0D7E : EE;
    0D7F : CD;
    0D80 : 15;
    0D81 : 03;
    0D82 : D2;
    0D83 : D2;
    0D84 : 08;
    0D85 : 01;
    0D86 : F0;
    0D87 : 05;
    0D88 : 0C;
    0D89 : 0B;
    0D8A : 09;
    0D8B : 2B;
    0D8C : 05;
    0D8D : 04;
    0D8E : 0B;
    0D8F : 28;
    0D90 : C5;
    0D91 : CE;
    0D92 : ED;
    0D93 : 08;
    0D94 : ED;
    0D95 : E5;
    0D96 : F3;
    0D97 : 15;
    0D98 : 01;
    0D99 : EA;
    0D9A : FB;
    0D9B : F5;
    0D9C : F1;
    0D9D : 0C;
    0D9E : 24;
    0D9F : FB;
    0DA0 : E7;
    0DA1 : 17;
    0DA2 : 2D;
    0DA3 : 0D;
    0DA4 : 10;
    0DA5 : 20;
    0DA6 : FE;
    0DA7 : FC;
    0DA8 : 0E;
    0DA9 : 14;
    0DAA : E6;
    0DAB : EB;
    0DAC : BC;
    0DAD : D9;
    0DAE : C1;
    0DAF : C7;
    0DB0 : F3;
    0DB1 : 0D;
    0DB2 : F3;
    0DB3 : DB;
    0DB4 : F8;
    0DB5 : EB;
    0DB6 : F9;
    0DB7 : F6;
    0DB8 : 0F;
    0DB9 : 0E;
    0DBA : F3;
    0DBB : F9;
    0DBC : 17;
    0DBD : FE;
    0DBE : FE;
    0DBF : 06;
    0DC0 : EE;
    0DC1 : 07;
    0DC2 : F4;
    0DC3 : FC;
    0DC4 : F2;
    0DC5 : F0;
    0DC6 : F6;
    0DC7 : F4;
    0DC8 : 10;
    0DC9 : 1B;
    0DCA : F5;
    0DCB : F7;
    0DCC : 1C;
    0DCD : FC;
    0DCE : FD;
    0DCF : FF;
    0DD0 : 1C;
    0DD1 : 15;
    0DD2 : 24;
    0DD3 : 6D;
    0DD4 : 1D;
    0DD5 : 15;
    0DD6 : 1F;
    0DD7 : 22;
    0DD8 : 08;
    0DD9 : 12;
    0DDA : 0D;
    0DDB : CC;
    0DDC : 06;
    0DDD : 05;
    0DDE : EE;
    0DDF : C4;
    0DE0 : 2D;
    0DE1 : 2F;
    0DE2 : 2A;
    0DE3 : 01;
    0DE4 : 2F;
    0DE5 : F4;
    0DE6 : 09;
    0DE7 : 04;
    0DE8 : 27;
    0DE9 : 12;
    0DEA : F2;
    0DEB : F7;
    0DEC : 12;
    0DED : 14;
    0DEE : FC;
    0DEF : FC;
    0DF0 : 0B;
    0DF1 : 20;
    0DF2 : 10;
    0DF3 : 1E;
    0DF4 : F4;
    0DF5 : 00;
    0DF6 : FF;
    0DF7 : FA;
    0DF8 : 04;
    0DF9 : EE;
    0DFA : E9;
    0DFB : FF;
    0DFC : E6;
    0DFD : FD;
    0DFE : EE;
    0DFF : 02;
    0E00 : 26;
    0E01 : 34;
    0E02 : 37;
    0E03 : 26;
    0E04 : 3D;
    0E05 : 0A;
    0E06 : 06;
    0E07 : F6;
    0E08 : 20;
    0E09 : FE;
    0E0A : E9;
    0E0B : DC;
    0E0C : F4;
    0E0D : EC;
    0E0E : E4;
    0E0F : EC;
    0E10 : F8;
    0E11 : D6;
    0E12 : D5;
    0E13 : C7;
    0E14 : F7;
    0E15 : 05;
    0E16 : 06;
    0E17 : EE;
    0E18 : ED;
    0E19 : E2;
    0E1A : F9;
    0E1B : 1A;
    0E1C : E2;
    0E1D : F3;
    0E1E : 0F;
    0E1F : 28;
    0E20 : 12;
    0E21 : E1;
    0E22 : FA;
    0E23 : E9;
    0E24 : 22;
    0E25 : 1B;
    0E26 : 13;
    0E27 : 00;
    0E28 : FC;
    0E29 : F2;
    0E2A : 13;
    0E2B : FA;
    0E2C : DF;
    0E2D : F8;
    0E2E : 09;
    0E2F : FC;
    0E30 : FA;
    0E31 : DF;
    0E32 : FF;
    0E33 : 2B;
    0E34 : F6;
    0E35 : 0C;
    0E36 : 05;
    0E37 : 04;
    0E38 : FF;
    0E39 : 0A;
    0E3A : FF;
    0E3B : 03;
    0E3C : 1C;
    0E3D : 15;
    0E3E : 17;
    0E3F : 0B;
    0E40 : 03;
    0E41 : 04;
    0E42 : F9;
    0E43 : 16;
    0E44 : 09;
    0E45 : F6;
    0E46 : 0A;
    0E47 : 02;
    0E48 : 1B;
    0E49 : 14;
    0E4A : 01;
    0E4B : 04;
    0E4C : EF;
    0E4D : 06;
    0E4E : 14;
    0E4F : F3;
    0E50 : 07;
    0E51 : FA;
    0E52 : 0A;
    0E53 : F3;
    0E54 : E9;
    0E55 : F8;
    0E56 : 10;
    0E57 : 12;
    0E58 : B5;
    0E59 : EA;
    0E5A : 11;
    0E5B : 29;
    0E5C : F8;
    0E5D : 12;
    0E5E : 1A;
    0E5F : 25;
    0E60 : F3;
    0E61 : FC;
    0E62 : 14;
    0E63 : 1A;
    0E64 : FF;
    0E65 : 03;
    0E66 : 08;
    0E67 : F5;
    0E68 : 00;
    0E69 : 0E;
    0E6A : F2;
    0E6B : ED;
    0E6C : 00;
    0E6D : 0B;
    0E6E : F8;
    0E6F : 01;
    0E70 : F9;
    0E71 : 12;
    0E72 : 25;
    0E73 : 35;
    0E74 : F9;
    0E75 : 02;
    0E76 : 19;
    0E77 : 03;
    0E78 : 05;
    0E79 : FB;
    0E7A : 28;
    0E7B : FD;
    0E7C : FB;
    0E7D : 04;
    0E7E : F5;
    0E7F : FF;
    0E80 : 0B;
    0E81 : 15;
    0E82 : 1B;
    0E83 : 16;
    0E84 : FA;
    0E85 : 18;
    0E86 : 0E;
    0E87 : 0F;
    0E88 : 0A;
    0E89 : 0E;
    0E8A : 07;
    0E8B : FD;
    0E8C : F5;
    0E8D : E9;
    0E8E : EA;
    0E8F : F6;
    0E90 : F1;
    0E91 : 07;
    0E92 : FF;
    0E93 : 0B;
    0E94 : F6;
    0E95 : EC;
    0E96 : FD;
    0E97 : 22;
    0E98 : D6;
    0E99 : FD;
    0E9A : 15;
    0E9B : 07;
    0E9C : DA;
    0E9D : 03;
    0E9E : 1C;
    0E9F : 2F;
    0EA0 : 33;
    0EA1 : 0F;
    0EA2 : EE;
    0EA3 : C4;
    0EA4 : 54;
    0EA5 : 0D;
    0EA6 : 1C;
    0EA7 : ED;
    0EA8 : 0C;
    0EA9 : F2;
    0EAA : 04;
    0EAB : 0B;
    0EAC : 18;
    0EAD : 0C;
    0EAE : E5;
    0EAF : DA;
    0EB0 : 20;
    0EB1 : E4;
    0EB2 : EA;
    0EB3 : FA;
    0EB4 : EF;
    0EB5 : 0E;
    0EB6 : FE;
    0EB7 : F8;
    0EB8 : 0C;
    0EB9 : 0F;
    0EBA : 06;
    0EBB : 26;
    0EBC : EC;
    0EBD : F1;
    0EBE : F6;
    0EBF : FF;
    0EC0 : DB;
    0EC1 : D3;
    0EC2 : DB;
    0EC3 : D9;
    0EC4 : FB;
    0EC5 : EA;
    0EC6 : F1;
    0EC7 : 10;
    0EC8 : F3;
    0EC9 : EC;
    0ECA : 10;
    0ECB : 16;
    0ECC : FC;
    0ECD : EA;
    0ECE : 0E;
    0ECF : 08;
    0ED0 : 13;
    0ED1 : E9;
    0ED2 : FC;
    0ED3 : 11;
    0ED4 : 09;
    0ED5 : 1C;
    0ED6 : 08;
    0ED7 : F2;
    0ED8 : 2A;
    0ED9 : 23;
    0EDA : F7;
    0EDB : FE;
    0EDC : 1C;
    0EDD : 1D;
    0EDE : 1B;
    0EDF : 02;
    0EE0 : 05;
    0EE1 : E8;
    0EE2 : E3;
    0EE3 : F7;
    0EE4 : 0F;
    0EE5 : FB;
    0EE6 : 1B;
    0EE7 : F1;
    0EE8 : 11;
    0EE9 : 06;
    0EEA : FE;
    0EEB : D7;
    0EEC : 00;
    0EED : E8;
    0EEE : E9;
    0EEF : E0;
    0EF0 : 43;
    0EF1 : 16;
    0EF2 : 20;
    0EF3 : 13;
    0EF4 : F1;
    0EF5 : 01;
    0EF6 : 27;
    0EF7 : 1A;
    0EF8 : 04;
    0EF9 : FB;
    0EFA : FE;
    0EFB : 15;
    0EFC : E3;
    0EFD : 00;
    0EFE : EA;
    0EFF : 05;
    0F00 : 0E;
    0F01 : E9;
    0F02 : EE;
    0F03 : CF;
    0F04 : F8;
    0F05 : F3;
    0F06 : FC;
    0F07 : DC;
    0F08 : 0B;
    0F09 : 06;
    0F0A : 05;
    0F0B : E4;
    0F0C : 2B;
    0F0D : 1F;
    0F0E : E1;
    0F0F : F5;
    0F10 : 06;
    0F11 : 02;
    0F12 : 2E;
    0F13 : 36;
    0F14 : FC;
    0F15 : 22;
    0F16 : 1E;
    0F17 : 31;
    0F18 : ED;
    0F19 : D5;
    0F1A : FF;
    0F1B : 0A;
    0F1C : E0;
    0F1D : FF;
    0F1E : FC;
    0F1F : F7;
    0F20 : 06;
    0F21 : 29;
    0F22 : 22;
    0F23 : 3F;
    0F24 : E7;
    0F25 : E5;
    0F26 : 03;
    0F27 : 2D;
    0F28 : F4;
    0F29 : D7;
    0F2A : EB;
    0F2B : 05;
    0F2C : EF;
    0F2D : F8;
    0F2E : FD;
    0F2F : E6;
    0F30 : 15;
    0F31 : 0F;
    0F32 : FD;
    0F33 : D9;
    0F34 : 23;
    0F35 : 1C;
    0F36 : FC;
    0F37 : FE;
    0F38 : 26;
    0F39 : 15;
    0F3A : 03;
    0F3B : F4;
    0F3C : 58;
    0F3D : 1E;
    0F3E : F5;
    0F3F : EC;
    0F40 : 22;
    0F41 : 24;
    0F42 : 0E;
    0F43 : 24;
    0F44 : 0D;
    0F45 : 21;
    0F46 : FF;
    0F47 : F3;
    0F48 : 14;
    0F49 : 1E;
    0F4A : 09;
    0F4B : F5;
    0F4C : F7;
    0F4D : EB;
    0F4E : FD;
    0F4F : 28;
    0F50 : 03;
    0F51 : 18;
    0F52 : 21;
    0F53 : 17;
    0F54 : 08;
    0F55 : 0E;
    0F56 : 01;
    0F57 : ED;
    0F58 : E6;
    0F59 : C0;
    0F5A : D4;
    0F5B : F0;
    0F5C : 15;
    0F5D : 23;
    0F5E : 1D;
    0F5F : 18;
    0F60 : EE;
    0F61 : 12;
    0F62 : 1F;
    0F63 : 1D;
    0F64 : 12;
    0F65 : 15;
    0F66 : F2;
    0F67 : 06;
    0F68 : 11;
    0F69 : FE;
    0F6A : 15;
    0F6B : 06;
    0F6C : 0D;
    0F6D : 20;
    0F6E : 07;
    0F6F : 00;
    0F70 : 13;
    0F71 : 2C;
    0F72 : 20;
    0F73 : 02;
    0F74 : 1D;
    0F75 : 14;
    0F76 : 38;
    0F77 : 00;
    0F78 : 06;
    0F79 : 0B;
    0F7A : 2C;
    0F7B : FB;
    0F7C : F6;
    0F7D : DB;
    0F7E : D6;
    0F7F : F5;
    0F80 : 14;
    0F81 : 10;
    0F82 : 13;
    0F83 : F9;
    0F84 : DD;
    0F85 : EE;
    0F86 : F1;
    0F87 : ED;
    0F88 : EB;
    0F89 : E4;
    0F8A : 0E;
    0F8B : 06;
    0F8C : F4;
    0F8D : EF;
    0F8E : 02;
    0F8F : 30;
    0F90 : F0;
    0F91 : 00;
    0F92 : F2;
    0F93 : F1;
    0F94 : 12;
    0F95 : 0D;
    0F96 : 1D;
    0F97 : F6;
    0F98 : 03;
    0F99 : 29;
    0F9A : 1A;
    0F9B : 09;
    0F9C : F3;
    0F9D : 1A;
    0F9E : 4D;
    0F9F : 08;
    0FA0 : 2F;
    0FA1 : 13;
    0FA2 : 2C;
    0FA3 : 32;
    0FA4 : 09;
    0FA5 : FF;
    0FA6 : 11;
    0FA7 : 5A;
    0FA8 : 0D;
    0FA9 : DE;
    0FAA : F7;
    0FAB : 2B;
    0FAC : D5;
    0FAD : EC;
    0FAE : CB;
    0FAF : F4;
    0FB0 : FD;
    0FB1 : 13;
    0FB2 : 27;
    0FB3 : 22;
    0FB4 : FD;
    0FB5 : E3;
    0FB6 : EA;
    0FB7 : 03;
    0FB8 : F7;
    0FB9 : 04;
    0FBA : FA;
    0FBB : E7;
    0FBC : F8;
    0FBD : 17;
    0FBE : 1E;
    0FBF : FC;
    0FC0 : 0A;
    0FC1 : 0E;
    0FC2 : 00;
    0FC3 : 16;
    0FC4 : 09;
    0FC5 : E8;
    0FC6 : F0;
    0FC7 : 11;
    0FC8 : 01;
    0FC9 : F5;
    0FCA : F8;
    0FCB : F2;
    0FCC : FB;
    0FCD : 10;
    0FCE : 28;
    0FCF : F7;
    0FD0 : D4;
    0FD1 : E9;
    0FD2 : D8;
    0FD3 : B4;
    0FD4 : 05;
    0FD5 : 1C;
    0FD6 : F0;
    0FD7 : E4;
    0FD8 : 1B;
    0FD9 : 2C;
    0FDA : 0E;
    0FDB : 0A;
    0FDC : CF;
    0FDD : E5;
    0FDE : F6;
    0FDF : D1;
    0FE0 : F1;
    0FE1 : 1B;
    0FE2 : 14;
    0FE3 : 42;
    0FE4 : FC;
    0FE5 : 24;
    0FE6 : 0F;
    0FE7 : E1;
    0FE8 : E3;
    0FE9 : FD;
    0FEA : F8;
    0FEB : DB;
    0FEC : E7;
    0FED : F4;
    0FEE : 0B;
    0FEF : 17;
    0FF0 : 0B;
    0FF1 : 2E;
    0FF2 : 24;
    0FF3 : 02;
    0FF4 : 05;
    0FF5 : 0E;
    0FF6 : 17;
    0FF7 : 04;
    0FF8 : F6;
    0FF9 : EF;
    0FFA : 18;
    0FFB : 24;
    0FFC : E9;
    0FFD : FC;
    0FFE : 01;
    0FFF : FA;
    1000 : 60;
    1001 : 4F;
    1002 : 2F;
    1003 : 26;
    1004 : 20;
    1005 : FA;
    1006 : EA;
    1007 : EE;
    1008 : 25;
    1009 : 0E;
    100A : 00;
    100B : FD;
    100C : 56;
    100D : 37;
    100E : 04;
    100F : F8;
    1010 : D1;
    1011 : CA;
    1012 : D4;
    1013 : D9;
    1014 : E9;
    1015 : F4;
    1016 : E3;
    1017 : E2;
    1018 : F1;
    1019 : F5;
    101A : 0C;
    101B : 08;
    101C : FD;
    101D : F5;
    101E : FA;
    101F : ED;
    1020 : CB;
    1021 : E5;
    1022 : D1;
    1023 : AC;
    1024 : E0;
    1025 : F2;
    1026 : 14;
    1027 : 02;
    1028 : E5;
    1029 : F9;
    102A : 0E;
    102B : 0B;
    102C : 04;
    102D : F3;
    102E : F3;
    102F : F4;
    1030 : 05;
    1031 : 23;
    1032 : 25;
    1033 : 2B;
    1034 : FF;
    1035 : EF;
    1036 : 08;
    1037 : FC;
    1038 : FF;
    1039 : 0A;
    103A : F9;
    103B : 06;
    103C : F3;
    103D : 11;
    103E : F6;
    103F : FF;
    1040 : 15;
    1041 : 29;
    1042 : 1D;
    1043 : 2D;
    1044 : 23;
    1045 : 15;
    1046 : EF;
    1047 : F4;
    1048 : 23;
    1049 : 10;
    104A : 12;
    104B : 04;
    104C : FE;
    104D : 09;
    104E : 2D;
    104F : 18;
    1050 : F3;
    1051 : F8;
    1052 : 0F;
    1053 : EC;
    1054 : FB;
    1055 : 05;
    1056 : 0A;
    1057 : 01;
    1058 : 25;
    1059 : 20;
    105A : 10;
    105B : FF;
    105C : 0A;
    105D : 13;
    105E : 05;
    105F : E7;
    1060 : 19;
    1061 : 1A;
    1062 : 11;
    1063 : 25;
    1064 : FF;
    1065 : 13;
    1066 : 05;
    1067 : 0D;
    1068 : E9;
    1069 : FE;
    106A : F7;
    106B : EF;
    106C : D5;
    106D : E1;
    106E : F0;
    106F : 07;
    1070 : F3;
    1071 : F6;
    1072 : 17;
    1073 : 36;
    1074 : 0C;
    1075 : F7;
    1076 : 06;
    1077 : 0B;
    1078 : F8;
    1079 : 08;
    107A : F6;
    107B : 13;
    107C : DF;
    107D : DF;
    107E : E6;
    107F : EA;
    1080 : FE;
    1081 : 1A;
    1082 : 2B;
    1083 : 29;
    1084 : FD;
    1085 : 04;
    1086 : 05;
    1087 : EB;
    1088 : 12;
    1089 : 15;
    108A : 1F;
    108B : FA;
    108C : 12;
    108D : 08;
    108E : 2A;
    108F : 05;
    1090 : 02;
    1091 : 1B;
    1092 : 22;
    1093 : 2E;
    1094 : 03;
    1095 : FD;
    1096 : E9;
    1097 : 0B;
    1098 : 0C;
    1099 : FB;
    109A : 0A;
    109B : 05;
    109C : 1A;
    109D : 01;
    109E : 03;
    109F : 02;
    10A0 : 14;
    10A1 : D5;
    10A2 : D4;
    10A3 : B7;
    10A4 : EB;
    10A5 : BF;
    10A6 : F3;
    10A7 : 02;
    10A8 : D5;
    10A9 : 02;
    10AA : 1A;
    10AB : 05;
    10AC : 38;
    10AD : 21;
    10AE : 38;
    10AF : 1F;
    10B0 : 11;
    10B1 : E7;
    10B2 : EB;
    10B3 : 0F;
    10B4 : 15;
    10B5 : F4;
    10B6 : F6;
    10B7 : F8;
    10B8 : 0B;
    10B9 : EE;
    10BA : EB;
    10BB : F0;
    10BC : FA;
    10BD : FD;
    10BE : 0C;
    10BF : EE;
    10C0 : FD;
    10C1 : 02;
    10C2 : 01;
    10C3 : 29;
    10C4 : 19;
    10C5 : 08;
    10C6 : 04;
    10C7 : 06;
    10C8 : 0E;
    10C9 : FC;
    10CA : FF;
    10CB : 07;
    10CC : 0D;
    10CD : 06;
    10CE : 1E;
    10CF : 12;
    10D0 : 13;
    10D1 : 13;
    10D2 : FA;
    10D3 : 0C;
    10D4 : F5;
    10D5 : F7;
    10D6 : FB;
    10D7 : 06;
    10D8 : E9;
    10D9 : FF;
    10DA : 0A;
    10DB : 15;
    10DC : F5;
    10DD : EA;
    10DE : DD;
    10DF : F2;
    10E0 : D1;
    10E1 : CF;
    10E2 : E6;
    10E3 : 0A;
    10E4 : E3;
    10E5 : F6;
    10E6 : 15;
    10E7 : 18;
    10E8 : D8;
    10E9 : FC;
    10EA : 18;
    10EB : F8;
    10EC : FC;
    10ED : 13;
    10EE : 1B;
    10EF : 1D;
    10F0 : 1E;
    10F1 : 05;
    10F2 : EA;
    10F3 : F7;
    10F4 : 10;
    10F5 : 02;
    10F6 : DA;
    10F7 : 04;
    10F8 : 16;
    10F9 : 11;
    10FA : 03;
    10FB : F8;
    10FC : 00;
    10FD : FF;
    10FE : 09;
    10FF : FB;
    1100 : D4;
    1101 : CE;
    1102 : D6;
    1103 : D9;
    1104 : F0;
    1105 : F9;
    1106 : DF;
    1107 : F0;
    1108 : F5;
    1109 : D4;
    110A : 09;
    110B : 22;
    110C : 2E;
    110D : 2C;
    110E : 1C;
    110F : 0F;
    1110 : 1A;
    1111 : 27;
    1112 : 2C;
    1113 : 1E;
    1114 : 16;
    1115 : 09;
    1116 : 13;
    1117 : 2B;
    1118 : 1F;
    1119 : 16;
    111A : FF;
    111B : 1E;
    111C : 16;
    111D : 27;
    111E : 08;
    111F : E6;
    1120 : F6;
    1121 : 0A;
    1122 : 12;
    1123 : 15;
    1124 : F4;
    1125 : 0B;
    1126 : 12;
    1127 : 1A;
    1128 : 07;
    1129 : 0C;
    112A : 08;
    112B : 0B;
    112C : 10;
    112D : 1D;
    112E : FA;
    112F : D1;
    1130 : 13;
    1131 : 21;
    1132 : F4;
    1133 : EA;
    1134 : 0F;
    1135 : 01;
    1136 : F4;
    1137 : F7;
    1138 : F1;
    1139 : DD;
    113A : E1;
    113B : F2;
    113C : B9;
    113D : D7;
    113E : E6;
    113F : 07;
    1140 : FF;
    1141 : F6;
    1142 : 02;
    1143 : FF;
    1144 : EE;
    1145 : F0;
    1146 : FF;
    1147 : F9;
    1148 : F6;
    1149 : DB;
    114A : 06;
    114B : D8;
    114C : EC;
    114D : F2;
    114E : F6;
    114F : 07;
    1150 : E9;
    1151 : FA;
    1152 : 11;
    1153 : 05;
    1154 : F5;
    1155 : 01;
    1156 : F4;
    1157 : F2;
    1158 : 1D;
    1159 : 0A;
    115A : F6;
    115B : E1;
    115C : 5D;
    115D : 3E;
    115E : 15;
    115F : 02;
    1160 : 0A;
    1161 : 14;
    1162 : F6;
    1163 : E4;
    1164 : 11;
    1165 : 0F;
    1166 : F6;
    1167 : 00;
    1168 : 03;
    1169 : 05;
    116A : 08;
    116B : 0C;
    116C : F5;
    116D : F7;
    116E : 0F;
    116F : 02;
    1170 : 02;
    1171 : 00;
    1172 : DE;
    1173 : C9;
    1174 : 06;
    1175 : FF;
    1176 : E6;
    1177 : D3;
    1178 : E5;
    1179 : F1;
    117A : EB;
    117B : E8;
    117C : E0;
    117D : E8;
    117E : DF;
    117F : EE;
    1180 : 0D;
    1181 : FE;
    1182 : 05;
    1183 : 03;
    1184 : 21;
    1185 : EC;
    1186 : F7;
    1187 : E3;
    1188 : 12;
    1189 : 0C;
    118A : 0C;
    118B : 0C;
    118C : 30;
    118D : 08;
    118E : 1E;
    118F : 0D;
    1190 : F4;
    1191 : 00;
    1192 : 07;
    1193 : EF;
    1194 : 31;
    1195 : 1E;
    1196 : 01;
    1197 : F4;
    1198 : 15;
    1199 : 0B;
    119A : ED;
    119B : D9;
    119C : 1F;
    119D : 29;
    119E : FE;
    119F : D9;
    11A0 : 43;
    11A1 : FF;
    11A2 : EE;
    11A3 : 03;
    11A4 : 04;
    11A5 : FE;
    11A6 : D0;
    11A7 : E9;
    11A8 : 1A;
    11A9 : 14;
    11AA : 33;
    11AB : 37;
    11AC : 38;
    11AD : FD;
    11AE : 17;
    11AF : 0D;
    11B0 : 04;
    11B1 : 1C;
    11B2 : 10;
    11B3 : 13;
    11B4 : 12;
    11B5 : 29;
    11B6 : 0B;
    11B7 : 13;
    11B8 : 01;
    11B9 : 13;
    11BA : 0B;
    11BB : E5;
    11BC : 14;
    11BD : 20;
    11BE : 20;
    11BF : F0;
    11C0 : 13;
    11C1 : 12;
    11C2 : 18;
    11C3 : 0D;
    11C4 : F6;
    11C5 : 18;
    11C6 : 0A;
    11C7 : DA;
    11C8 : F1;
    11C9 : E9;
    11CA : F9;
    11CB : F7;
    11CC : 18;
    11CD : 25;
    11CE : 20;
    11CF : F2;
    11D0 : 02;
    11D1 : 0A;
    11D2 : FA;
    11D3 : D0;
    11D4 : E0;
    11D5 : F6;
    11D6 : FC;
    11D7 : DB;
    11D8 : DF;
    11D9 : F0;
    11DA : E5;
    11DB : FE;
    11DC : FB;
    11DD : 14;
    11DE : EA;
    11DF : 07;
    11E0 : 09;
    11E1 : 1D;
    11E2 : 00;
    11E3 : 1C;
    11E4 : F2;
    11E5 : 00;
    11E6 : D6;
    11E7 : 0D;
    11E8 : F0;
    11E9 : 08;
    11EA : 04;
    11EB : 22;
    11EC : F8;
    11ED : 2B;
    11EE : 22;
    11EF : 22;
    11F0 : F0;
    11F1 : 02;
    11F2 : FC;
    11F3 : 10;
    11F4 : 08;
    11F5 : FD;
    11F6 : F0;
    11F7 : FA;
    11F8 : 1D;
    11F9 : 26;
    11FA : 16;
    11FB : 10;
    11FC : 30;
    11FD : 3B;
    11FE : 30;
    11FF : 1B;
    1200 : 22;
    1201 : 18;
    1202 : 01;
    1203 : 15;
    1204 : F2;
    1205 : FA;
    1206 : 09;
    1207 : 0D;
    1208 : D9;
    1209 : 03;
    120A : 16;
    120B : 21;
    120C : D4;
    120D : E4;
    120E : E3;
    120F : D8;
    1210 : E8;
    1211 : FF;
    1212 : F1;
    1213 : FC;
    1214 : 01;
    1215 : F7;
    1216 : 03;
    1217 : F7;
    1218 : FA;
    1219 : 00;
    121A : FF;
    121B : FD;
    121C : 01;
    121D : 0B;
    121E : F7;
    121F : 15;
    1220 : EC;
    1221 : 06;
    1222 : 13;
    1223 : 0D;
    1224 : FE;
    1225 : 17;
    1226 : F4;
    1227 : E7;
    1228 : FB;
    1229 : 34;
    122A : 15;
    122B : 05;
    122C : E4;
    122D : 19;
    122E : 00;
    122F : 0E;
    1230 : 3A;
    1231 : 1F;
    1232 : F4;
    1233 : F4;
    1234 : 15;
    1235 : 11;
    1236 : 00;
    1237 : EA;
    1238 : 15;
    1239 : FC;
    123A : EE;
    123B : FF;
    123C : 2C;
    123D : 10;
    123E : EB;
    123F : EE;
    1240 : 1C;
    1241 : 34;
    1242 : 14;
    1243 : 0D;
    1244 : 13;
    1245 : 25;
    1246 : 16;
    1247 : 04;
    1248 : 27;
    1249 : 03;
    124A : 0A;
    124B : 26;
    124C : FD;
    124D : EE;
    124E : F8;
    124F : 05;
    1250 : F6;
    1251 : F4;
    1252 : 1A;
    1253 : 15;
    1254 : 10;
    1255 : 15;
    1256 : 19;
    1257 : FE;
    1258 : 03;
    1259 : 1B;
    125A : 02;
    125B : 12;
    125C : FE;
    125D : 1A;
    125E : 2C;
    125F : 0B;
    1260 : 09;
    1261 : 0E;
    1262 : 0C;
    1263 : 16;
    1264 : 0E;
    1265 : F9;
    1266 : F6;
    1267 : EB;
    1268 : 06;
    1269 : 08;
    126A : 00;
    126B : F7;
    126C : FD;
    126D : 02;
    126E : 0F;
    126F : EF;
    1270 : 17;
    1271 : 16;
    1272 : 0C;
    1273 : 05;
    1274 : 1D;
    1275 : 32;
    1276 : 10;
    1277 : 23;
    1278 : 02;
    1279 : 27;
    127A : 2A;
    127B : 17;
    127C : FC;
    127D : 00;
    127E : FD;
    127F : FE;
    1280 : 1D;
    1281 : 12;
    1282 : 05;
    1283 : F0;
    1284 : 18;
    1285 : F0;
    1286 : 0D;
    1287 : 03;
    1288 : 07;
    1289 : EB;
    128A : 11;
    128B : 0E;
    128C : FE;
    128D : EA;
    128E : 00;
    128F : 12;
    1290 : 15;
    1291 : 22;
    1292 : 1F;
    1293 : FA;
    1294 : 23;
    1295 : 18;
    1296 : 0C;
    1297 : F8;
    1298 : 02;
    1299 : 07;
    129A : 0C;
    129B : F1;
    129C : 13;
    129D : 14;
    129E : 13;
    129F : 03;
    12A0 : FE;
    12A1 : 06;
    12A2 : F1;
    12A3 : FB;
    12A4 : FE;
    12A5 : 00;
    12A6 : F2;
    12A7 : 01;
    12A8 : EF;
    12A9 : 06;
    12AA : 21;
    12AB : F3;
    12AC : F4;
    12AD : 22;
    12AE : 36;
    12AF : FF;
    12B0 : E1;
    12B1 : EA;
    12B2 : F1;
    12B3 : EF;
    12B4 : 04;
    12B5 : F6;
    12B6 : F6;
    12B7 : 15;
    12B8 : 24;
    12B9 : 03;
    12BA : F7;
    12BB : 00;
    12BC : FE;
    12BD : 07;
    12BE : 0A;
    12BF : 13;
    12C0 : DE;
    12C1 : F4;
    12C2 : D2;
    12C3 : DA;
    12C4 : 12;
    12C5 : 06;
    12C6 : FF;
    12C7 : DB;
    12C8 : 22;
    12C9 : F7;
    12CA : 09;
    12CB : 21;
    12CC : 22;
    12CD : 28;
    12CE : 0B;
    12CF : 1E;
    12D0 : FA;
    12D1 : F8;
    12D2 : E9;
    12D3 : E1;
    12D4 : F4;
    12D5 : F2;
    12D6 : F3;
    12D7 : E8;
    12D8 : FE;
    12D9 : FD;
    12DA : F2;
    12DB : EE;
    12DC : D2;
    12DD : DD;
    12DE : DB;
    12DF : C8;
    12E0 : E7;
    12E1 : E6;
    12E2 : FF;
    12E3 : F1;
    12E4 : 07;
    12E5 : F5;
    12E6 : 15;
    12E7 : 1D;
    12E8 : FA;
    12E9 : F2;
    12EA : 0A;
    12EB : 18;
    12EC : F2;
    12ED : 1C;
    12EE : 0A;
    12EF : 05;
    12F0 : 24;
    12F1 : 13;
    12F2 : 00;
    12F3 : FA;
    12F4 : 01;
    12F5 : 06;
    12F6 : F9;
    12F7 : F5;
    12F8 : E2;
    12F9 : ED;
    12FA : 02;
    12FB : EF;
    12FC : E7;
    12FD : EC;
    12FE : 06;
    12FF : 00;
    1300 : 2A;
    1301 : 26;
    1302 : 28;
    1303 : EB;
    1304 : E8;
    1305 : 0F;
    1306 : FC;
    1307 : DE;
    1308 : BF;
    1309 : DF;
    130A : 0D;
    130B : 0F;
    130C : 2B;
    130D : 36;
    130E : 25;
    130F : 07;
    1310 : E1;
    1311 : C1;
    1312 : CF;
    1313 : 15;
    1314 : E4;
    1315 : F8;
    1316 : E8;
    1317 : 27;
    1318 : 09;
    1319 : 06;
    131A : FD;
    131B : 0F;
    131C : E9;
    131D : 01;
    131E : FF;
    131F : 01;
    1320 : A9;
    1321 : D0;
    1322 : AD;
    1323 : CA;
    1324 : D6;
    1325 : AD;
    1326 : E5;
    1327 : FB;
    1328 : CA;
    1329 : E2;
    132A : FF;
    132B : FB;
    132C : E1;
    132D : F0;
    132E : 04;
    132F : 0D;
    1330 : 0A;
    1331 : 1D;
    1332 : 2F;
    1333 : 00;
    1334 : F3;
    1335 : 06;
    1336 : 26;
    1337 : 06;
    1338 : DF;
    1339 : FA;
    133A : 0A;
    133B : 02;
    133C : D7;
    133D : 07;
    133E : 0C;
    133F : 00;
    1340 : E5;
    1341 : 14;
    1342 : 12;
    1343 : 26;
    1344 : FF;
    1345 : 1F;
    1346 : 2F;
    1347 : 2D;
    1348 : 07;
    1349 : 0D;
    134A : 10;
    134B : 1A;
    134C : F9;
    134D : 19;
    134E : 05;
    134F : 0E;
    1350 : F3;
    1351 : 07;
    1352 : 18;
    1353 : 14;
    1354 : 0A;
    1355 : 05;
    1356 : 06;
    1357 : 19;
    1358 : F8;
    1359 : 08;
    135A : 03;
    135B : 04;
    135C : 1F;
    135D : 22;
    135E : 17;
    135F : 1F;
    1360 : 1A;
    1361 : 21;
    1362 : 22;
    1363 : 0D;
    1364 : 1B;
    1365 : 17;
    1366 : 1B;
    1367 : 1E;
    1368 : 19;
    1369 : FC;
    136A : 17;
    136B : FA;
    136C : 0F;
    136D : FE;
    136E : FD;
    136F : 1C;
    1370 : DB;
    1371 : 1C;
    1372 : 03;
    1373 : 18;
    1374 : FB;
    1375 : 0C;
    1376 : 16;
    1377 : 12;
    1378 : FB;
    1379 : F9;
    137A : F3;
    137B : DD;
    137C : 22;
    137D : 09;
    137E : DC;
    137F : AD;
    1380 : ED;
    1381 : 15;
    1382 : 0E;
    1383 : 11;
    1384 : EB;
    1385 : F0;
    1386 : 07;
    1387 : 20;
    1388 : F2;
    1389 : 05;
    138A : 00;
    138B : 0A;
    138C : E9;
    138D : EB;
    138E : F4;
    138F : F4;
    1390 : B8;
    1391 : C8;
    1392 : FB;
    1393 : 17;
    1394 : C1;
    1395 : E5;
    1396 : FD;
    1397 : 13;
    1398 : D7;
    1399 : EF;
    139A : 12;
    139B : 16;
    139C : F6;
    139D : FA;
    139E : 10;
    139F : 33;
    13A0 : 45;
    13A1 : 14;
    13A2 : FC;
    13A3 : DD;
    13A4 : 33;
    13A5 : D6;
    13A6 : E5;
    13A7 : 16;
    13A8 : 0B;
    13A9 : C6;
    13AA : 15;
    13AB : 08;
    13AC : 1B;
    13AD : F1;
    13AE : F6;
    13AF : 03;
    13B0 : CE;
    13B1 : D6;
    13B2 : 15;
    13B3 : 1D;
    13B4 : DC;
    13B5 : 05;
    13B6 : 02;
    13B7 : F0;
    13B8 : D2;
    13B9 : E6;
    13BA : FC;
    13BB : D6;
    13BC : EC;
    13BD : F6;
    13BE : F6;
    13BF : E3;
    13C0 : D0;
    13C1 : 08;
    13C2 : 24;
    13C3 : 1E;
    13C4 : F6;
    13C5 : 0F;
    13C6 : 16;
    13C7 : 0A;
    13C8 : F6;
    13C9 : F7;
    13CA : FD;
    13CB : 01;
    13CC : F4;
    13CD : F7;
    13CE : FA;
    13CF : 10;
    13D0 : 08;
    13D1 : 08;
    13D2 : 1B;
    13D3 : 12;
    13D4 : 00;
    13D5 : 05;
    13D6 : FD;
    13D7 : E7;
    13D8 : 04;
    13D9 : 00;
    13DA : 04;
    13DB : 00;
    13DC : 29;
    13DD : 20;
    13DE : 1E;
    13DF : 0E;
    13E0 : F7;
    13E1 : FC;
    13E2 : F7;
    13E3 : 1C;
    13E4 : F8;
    13E5 : 10;
    13E6 : F9;
    13E7 : 05;
    13E8 : CE;
    13E9 : F4;
    13EA : EC;
    13EB : 0D;
    13EC : 03;
    13ED : 0F;
    13EE : FA;
    13EF : 0D;
    13F0 : E9;
    13F1 : F7;
    13F2 : F9;
    13F3 : FF;
    13F4 : BE;
    13F5 : FF;
    13F6 : F8;
    13F7 : F3;
    13F8 : EA;
    13F9 : EF;
    13FA : F4;
    13FB : FD;
    13FC : 18;
    13FD : 01;
    13FE : 23;
    13FF : 0F;
    1400 : 0A;
    1401 : 0B;
    1402 : 07;
    1403 : 08;
    1404 : E2;
    1405 : EC;
    1406 : F0;
    1407 : EF;
    1408 : D1;
    1409 : 05;
    140A : F5;
    140B : EB;
    140C : DC;
    140D : D8;
    140E : CF;
    140F : CA;
    1410 : 1B;
    1411 : FA;
    1412 : 0D;
    1413 : F6;
    1414 : 12;
    1415 : FC;
    1416 : F1;
    1417 : E0;
    1418 : 13;
    1419 : 0D;
    141A : EB;
    141B : 0A;
    141C : F9;
    141D : FE;
    141E : 17;
    141F : 22;
    1420 : 24;
    1421 : F0;
    1422 : EE;
    1423 : D0;
    1424 : 0C;
    1425 : 08;
    1426 : F4;
    1427 : F3;
    1428 : FC;
    1429 : F1;
    142A : 05;
    142B : 2B;
    142C : F1;
    142D : E9;
    142E : 0E;
    142F : 31;
    1430 : 1A;
    1431 : 1F;
    1432 : 00;
    1433 : 03;
    1434 : 17;
    1435 : F5;
    1436 : 12;
    1437 : F2;
    1438 : 0C;
    1439 : 33;
    143A : 0C;
    143B : FF;
    143C : 34;
    143D : 25;
    143E : EB;
    143F : 04;
    1440 : FA;
    1441 : 25;
    1442 : 12;
    1443 : EA;
    1444 : F4;
    1445 : 1A;
    1446 : 07;
    1447 : 10;
    1448 : 25;
    1449 : 1A;
    144A : FB;
    144B : 19;
    144C : 02;
    144D : 18;
    144E : F8;
    144F : DF;
    1450 : 11;
    1451 : F6;
    1452 : 0C;
    1453 : F2;
    1454 : 0D;
    1455 : 01;
    1456 : ED;
    1457 : 08;
    1458 : F5;
    1459 : F1;
    145A : FB;
    145B : 37;
    145C : 08;
    145D : 1C;
    145E : 20;
    145F : 27;
    1460 : F6;
    1461 : FC;
    1462 : 05;
    1463 : 05;
    1464 : 03;
    1465 : F1;
    1466 : F4;
    1467 : 08;
    1468 : 02;
    1469 : 1E;
    146A : 16;
    146B : F5;
    146C : 1A;
    146D : 18;
    146E : 13;
    146F : ED;
    1470 : 08;
    1471 : 10;
    1472 : 1D;
    1473 : 07;
    1474 : FD;
    1475 : 0C;
    1476 : 09;
    1477 : 04;
    1478 : 0B;
    1479 : 02;
    147A : 0C;
    147B : 1E;
    147C : 22;
    147D : 14;
    147E : EF;
    147F : CD;
    1480 : 14;
    1481 : 0F;
    1482 : 0B;
    1483 : 17;
    1484 : F9;
    1485 : F8;
    1486 : 15;
    1487 : 09;
    1488 : E8;
    1489 : E9;
    148A : F4;
    148B : 1B;
    148C : E3;
    148D : E1;
    148E : FB;
    148F : 10;
    1490 : 19;
    1491 : 1A;
    1492 : 22;
    1493 : 1C;
    1494 : ED;
    1495 : F3;
    1496 : 15;
    1497 : 1A;
    1498 : F5;
    1499 : 0C;
    149A : 06;
    149B : F4;
    149C : E9;
    149D : 2B;
    149E : 31;
    149F : 25;
    14A0 : CA;
    14A1 : C2;
    14A2 : 11;
    14A3 : 1D;
    14A4 : DA;
    14A5 : 0B;
    14A6 : 09;
    14A7 : 17;
    14A8 : F2;
    14A9 : E9;
    14AA : DE;
    14AB : D9;
    14AC : A8;
    14AD : E0;
    14AE : C1;
    14AF : E3;
    14B0 : F2;
    14B1 : 00;
    14B2 : 0A;
    14B3 : 24;
    14B4 : 0B;
    14B5 : E2;
    14B6 : 01;
    14B7 : 11;
    14B8 : FE;
    14B9 : FF;
    14BA : EF;
    14BB : FC;
    14BC : 13;
    14BD : FC;
    14BE : 0E;
    14BF : 03;
    14C0 : FB;
    14C1 : FA;
    14C2 : EF;
    14C3 : 02;
    14C4 : EB;
    14C5 : FB;
    14C6 : 03;
    14C7 : 12;
    14C8 : 0C;
    14C9 : FB;
    14CA : 0A;
    14CB : 04;
    14CC : 08;
    14CD : 07;
    14CE : 0E;
    14CF : 0B;
    14D0 : F6;
    14D1 : 05;
    14D2 : F5;
    14D3 : FB;
    14D4 : FF;
    14D5 : 0B;
    14D6 : 17;
    14D7 : 04;
    14D8 : 14;
    14D9 : 0B;
    14DA : 1F;
    14DB : CF;
    14DC : 0F;
    14DD : 01;
    14DE : 05;
    14DF : CA;
    14E0 : F4;
    14E1 : F8;
    14E2 : DC;
    14E3 : EB;
    14E4 : EF;
    14E5 : EB;
    14E6 : 14;
    14E7 : 02;
    14E8 : 08;
    14E9 : 09;
    14EA : 0E;
    14EB : F7;
    14EC : EC;
    14ED : F9;
    14EE : DA;
    14EF : ED;
    14F0 : 0B;
    14F1 : 08;
    14F2 : 17;
    14F3 : 13;
    14F4 : F5;
    14F5 : 08;
    14F6 : 01;
    14F7 : 06;
    14F8 : E1;
    14F9 : F3;
    14FA : F7;
    14FB : 0B;
    14FC : EB;
    14FD : D6;
    14FE : F2;
    14FF : F9;
    1500 : BE;
    1501 : E5;
    1502 : 02;
    1503 : D6;
    1504 : 18;
    1505 : 2E;
    1506 : F1;
    1507 : FD;
    1508 : 19;
    1509 : F2;
    150A : F1;
    150B : F1;
    150C : F8;
    150D : 01;
    150E : 07;
    150F : 1B;
    1510 : 19;
    1511 : 18;
    1512 : FD;
    1513 : 13;
    1514 : 18;
    1515 : F8;
    1516 : 02;
    1517 : 15;
    1518 : F2;
    1519 : F6;
    151A : F6;
    151B : FB;
    151C : 16;
    151D : FE;
    151E : 0E;
    151F : 01;
    1520 : 2B;
    1521 : 0D;
    1522 : 2C;
    1523 : 18;
    1524 : 28;
    1525 : F8;
    1526 : 04;
    1527 : 1D;
    1528 : F4;
    1529 : EA;
    152A : 02;
    152B : 00;
    152C : 20;
    152D : FD;
    152E : FF;
    152F : D9;
    1530 : BC;
    1531 : BB;
    1532 : D9;
    1533 : F6;
    1534 : C0;
    1535 : EA;
    1536 : 04;
    1537 : 0F;
    1538 : B8;
    1539 : F1;
    153A : EF;
    153B : 10;
    153C : D1;
    153D : EB;
    153E : 01;
    153F : 0F;
    1540 : CF;
    1541 : EA;
    1542 : E3;
    1543 : FA;
    1544 : FD;
    1545 : F4;
    1546 : 01;
    1547 : 0C;
    1548 : E7;
    1549 : 01;
    154A : F5;
    154B : F9;
    154C : 15;
    154D : 06;
    154E : 11;
    154F : F2;
    1550 : 02;
    1551 : F5;
    1552 : 0C;
    1553 : E8;
    1554 : CF;
    1555 : FB;
    1556 : 05;
    1557 : 06;
    1558 : DD;
    1559 : F6;
    155A : F2;
    155B : 02;
    155C : 0E;
    155D : EC;
    155E : FA;
    155F : DD;
    1560 : 00;
    1561 : 03;
    1562 : 00;
    1563 : 07;
    1564 : 06;
    1565 : 00;
    1566 : 13;
    1567 : 10;
    1568 : FB;
    1569 : 00;
    156A : FD;
    156B : 12;
    156C : 1C;
    156D : 0C;
    156E : FF;
    156F : 24;
    1570 : DA;
    1571 : CB;
    1572 : ED;
    1573 : EE;
    1574 : E1;
    1575 : D8;
    1576 : F8;
    1577 : F2;
    1578 : CF;
    1579 : D3;
    157A : 09;
    157B : D7;
    157C : EA;
    157D : E6;
    157E : 0A;
    157F : EC;
    1580 : 0C;
    1581 : E6;
    1582 : ED;
    1583 : DD;
    1584 : 20;
    1585 : 27;
    1586 : 06;
    1587 : 0C;
    1588 : FF;
    1589 : 16;
    158A : 08;
    158B : 11;
    158C : 0B;
    158D : 22;
    158E : 1C;
    158F : 0C;
    1590 : FC;
    1591 : D6;
    1592 : CA;
    1593 : 07;
    1594 : D7;
    1595 : D0;
    1596 : EC;
    1597 : FB;
    1598 : F1;
    1599 : E3;
    159A : EA;
    159B : 0D;
    159C : EB;
    159D : F5;
    159E : EF;
    159F : 06;
    15A0 : 08;
    15A1 : 2A;
    15A2 : 17;
    15A3 : E9;
    15A4 : 20;
    15A5 : FB;
    15A6 : 10;
    15A7 : 03;
    15A8 : 2E;
    15A9 : D8;
    15AA : EF;
    15AB : 00;
    15AC : F3;
    15AD : AC;
    15AE : D4;
    15AF : 08;
    15B0 : 1A;
    15B1 : 1E;
    15B2 : F7;
    15B3 : 02;
    15B4 : 0A;
    15B5 : 01;
    15B6 : FB;
    15B7 : FA;
    15B8 : 02;
    15B9 : 03;
    15BA : EB;
    15BB : 02;
    15BC : 05;
    15BD : 03;
    15BE : 18;
    15BF : FB;
    15C0 : 0E;
    15C1 : 14;
    15C2 : 0A;
    15C3 : 32;
    15C4 : F7;
    15C5 : F2;
    15C6 : 03;
    15C7 : 0D;
    15C8 : 09;
    15C9 : 17;
    15CA : 0C;
    15CB : FB;
    15CC : 00;
    15CD : F5;
    15CE : E0;
    15CF : 03;
    15D0 : 13;
    15D1 : 23;
    15D2 : 2C;
    15D3 : 47;
    15D4 : 2B;
    15D5 : 0A;
    15D6 : 11;
    15D7 : 1C;
    15D8 : 24;
    15D9 : 1A;
    15DA : 0E;
    15DB : 0D;
    15DC : 2E;
    15DD : 3C;
    15DE : 2B;
    15DF : 23;
    15E0 : 29;
    15E1 : 1F;
    15E2 : 1A;
    15E3 : 08;
    15E4 : 0E;
    15E5 : FF;
    15E6 : 17;
    15E7 : FC;
    15E8 : 0B;
    15E9 : 11;
    15EA : 03;
    15EB : F3;
    15EC : 07;
    15ED : EB;
    15EE : 02;
    15EF : 2F;
    15F0 : 12;
    15F1 : F0;
    15F2 : 09;
    15F3 : FE;
    15F4 : FB;
    15F5 : 04;
    15F6 : 0B;
    15F7 : 07;
    15F8 : 22;
    15F9 : 04;
    15FA : 0E;
    15FB : 22;
    15FC : 3E;
    15FD : 22;
    15FE : 24;
    15FF : 14;
    1600 : 11;
    1601 : 08;
    1602 : E9;
    1603 : 17;
    1604 : D2;
    1605 : 0C;
    1606 : 1C;
    1607 : 21;
    1608 : DC;
    1609 : 16;
    160A : 41;
    160B : 3F;
    160C : FC;
    160D : 09;
    160E : 21;
    160F : 2B;
    1610 : F2;
    1611 : 03;
    1612 : 04;
    1613 : FF;
    1614 : 07;
    1615 : 01;
    1616 : E1;
    1617 : EA;
    1618 : 14;
    1619 : FE;
    161A : D6;
    161B : FC;
    161C : FA;
    161D : E9;
    161E : EA;
    161F : FD;
    1620 : DB;
    1621 : EF;
    1622 : EA;
    1623 : F7;
    1624 : 14;
    1625 : 0F;
    1626 : 13;
    1627 : FB;
    1628 : 1C;
    1629 : 2A;
    162A : F3;
    162B : FB;
    162C : 0B;
    162D : 17;
    162E : 0F;
    162F : 14;
    1630 : 32;
    1631 : 23;
    1632 : 14;
    1633 : FE;
    1634 : 0A;
    1635 : FE;
    1636 : F7;
    1637 : 11;
    1638 : E5;
    1639 : 05;
    163A : 11;
    163B : 0B;
    163C : F8;
    163D : 1A;
    163E : 19;
    163F : 1B;
    1640 : 26;
    1641 : 1E;
    1642 : 20;
    1643 : 11;
    1644 : F7;
    1645 : 02;
    1646 : 00;
    1647 : 0D;
    1648 : 12;
    1649 : 17;
    164A : 15;
    164B : 06;
    164C : 16;
    164D : 21;
    164E : 1B;
    164F : F1;
    1650 : 1F;
    1651 : 0A;
    1652 : 01;
    1653 : 17;
    1654 : 39;
    1655 : F9;
    1656 : 09;
    1657 : F9;
    1658 : 24;
    1659 : 33;
    165A : 0A;
    165B : 1B;
    165C : F1;
    165D : F3;
    165E : FC;
    165F : 1B;
    1660 : 16;
    1661 : 03;
    1662 : 0E;
    1663 : 16;
    1664 : 0A;
    1665 : EC;
    1666 : 02;
    1667 : FD;
    1668 : FB;
    1669 : 09;
    166A : 07;
    166B : FF;
    166C : 1C;
    166D : F4;
    166E : FA;
    166F : 02;
    1670 : F7;
    1671 : FF;
    1672 : F4;
    1673 : F6;
    1674 : 06;
    1675 : FC;
    1676 : F4;
    1677 : 10;
    1678 : 22;
    1679 : 12;
    167A : F9;
    167B : 1E;
    167C : 28;
    167D : 2E;
    167E : 13;
    167F : 12;
    1680 : 0C;
    1681 : 07;
    1682 : E3;
    1683 : 0C;
    1684 : FD;
    1685 : FD;
    1686 : E7;
    1687 : 17;
    1688 : 1B;
    1689 : 14;
    168A : FE;
    168B : 28;
    168C : 0E;
    168D : 12;
    168E : 0C;
    168F : 17;
    1690 : FD;
    1691 : F0;
    1692 : FD;
    1693 : 13;
    1694 : FF;
    1695 : 00;
    1696 : F4;
    1697 : EB;
    1698 : FB;
    1699 : F1;
    169A : F3;
    169B : F2;
    169C : 07;
    169D : E9;
    169E : ED;
    169F : F4;
    16A0 : 9D;
    16A1 : F5;
    16A2 : F4;
    16A3 : 16;
    16A4 : 89;
    16A5 : F5;
    16A6 : 1B;
    16A7 : 26;
    16A8 : BD;
    16A9 : 17;
    16AA : 2D;
    16AB : 01;
    16AC : 09;
    16AD : 20;
    16AE : 34;
    16AF : 1E;
    16B0 : D6;
    16B1 : F0;
    16B2 : 01;
    16B3 : 1B;
    16B4 : 04;
    16B5 : FE;
    16B6 : E4;
    16B7 : FD;
    16B8 : 14;
    16B9 : 06;
    16BA : F1;
    16BB : 00;
    16BC : 17;
    16BD : EE;
    16BE : E4;
    16BF : 04;
    16C0 : 0D;
    16C1 : 0E;
    16C2 : 15;
    16C3 : 2B;
    16C4 : 08;
    16C5 : FF;
    16C6 : EF;
    16C7 : FA;
    16C8 : F0;
    16C9 : 11;
    16CA : F7;
    16CB : F5;
    16CC : FD;
    16CD : FE;
    16CE : D6;
    16CF : F0;
    16D0 : D2;
    16D1 : 01;
    16D2 : E7;
    16D3 : 0D;
    16D4 : DC;
    16D5 : 14;
    16D6 : 15;
    16D7 : F8;
    16D8 : F4;
    16D9 : 02;
    16DA : F2;
    16DB : EE;
    16DC : 03;
    16DD : 12;
    16DE : 11;
    16DF : 12;
    16E0 : 02;
    16E1 : 08;
    16E2 : 04;
    16E3 : EA;
    16E4 : ED;
    16E5 : FC;
    16E6 : F7;
    16E7 : 05;
    16E8 : 1A;
    16E9 : 11;
    16EA : 18;
    16EB : 21;
    16EC : 20;
    16ED : 08;
    16EE : 01;
    16EF : F6;
    16F0 : CC;
    16F1 : F7;
    16F2 : D7;
    16F3 : E1;
    16F4 : EF;
    16F5 : 04;
    16F6 : EB;
    16F7 : CF;
    16F8 : FD;
    16F9 : 04;
    16FA : F9;
    16FB : EC;
    16FC : 04;
    16FD : F9;
    16FE : 22;
    16FF : 04;
    1700 : 11;
    1701 : F8;
    1702 : 0D;
    1703 : F2;
    1704 : 00;
    1705 : 09;
    1706 : F2;
    1707 : 0E;
    1708 : 09;
    1709 : F2;
    170A : E8;
    170B : F7;
    170C : 01;
    170D : F7;
    170E : FA;
    170F : 06;
    1710 : EA;
    1711 : 03;
    1712 : 0D;
    1713 : 11;
    1714 : 13;
    1715 : EA;
    1716 : F4;
    1717 : FB;
    1718 : 03;
    1719 : 09;
    171A : F3;
    171B : E9;
    171C : 02;
    171D : EF;
    171E : FF;
    171F : 11;
    1720 : FA;
    1721 : 01;
    1722 : EA;
    1723 : 0E;
    1724 : F7;
    1725 : 0F;
    1726 : 0F;
    1727 : FC;
    1728 : FA;
    1729 : 13;
    172A : 0F;
    172B : 07;
    172C : F4;
    172D : 0B;
    172E : F2;
    172F : 11;
    1730 : EF;
    1731 : FB;
    1732 : 03;
    1733 : F1;
    1734 : 12;
    1735 : FF;
    1736 : F2;
    1737 : F8;
    1738 : 02;
    1739 : EF;
    173A : 0B;
    173B : 03;
    173C : 06;
    173D : 0C;
    173E : F9;
    173F : 01;
    1740 : F7;
    1741 : 08;
    1742 : 07;
    1743 : EA;
    1744 : F7;
    1745 : F0;
    1746 : 11;
    1747 : ED;
    1748 : F8;
    1749 : 10;
    174A : EE;
    174B : 07;
    174C : F0;
    174D : F8;
    174E : 0D;
    174F : E8;
    1750 : F8;
    1751 : 0C;
    1752 : F1;
    1753 : 15;
    1754 : ED;
    1755 : EE;
    1756 : 0B;
    1757 : F9;
    1758 : F4;
    1759 : F1;
    175A : 04;
    175B : 0E;
    175C : EC;
    175D : F7;
    175E : F1;
    175F : F4;
    1760 : 0C;
    1761 : 10;
    1762 : F1;
    1763 : 07;
    1764 : F6;
    1765 : FA;
    1766 : EC;
    1767 : F1;
    1768 : F0;
    1769 : 00;
    176A : 0C;
    176B : 0D;
    176C : F7;
    176D : 10;
    176E : 0A;
    176F : F3;
    1770 : 03;
    1771 : 13;
    1772 : EC;
    1773 : 00;
    1774 : 01;
    1775 : FF;
    1776 : 0D;
    1777 : 08;
    1778 : 07;
    1779 : 08;
    177A : EF;
    177B : 07;
    177C : 0C;
    177D : F2;
    177E : F7;
    177F : 0A;
    1780 : F3;
    1781 : F5;
    1782 : 02;
    1783 : EB;
    1784 : F9;
    1785 : EB;
    1786 : F1;
    1787 : EB;
    1788 : 0D;
    1789 : 08;
    178A : F0;
    178B : 0D;
    178C : F6;
    178D : FB;
    178E : F3;
    178F : 03;
    1790 : EC;
    1791 : 00;
    1792 : EE;
    1793 : 04;
    1794 : 05;
    1795 : F8;
    1796 : 0A;
    1797 : 0D;
    1798 : FF;
    1799 : 15;
    179A : 03;
    179B : 0E;
    179C : 00;
    179D : 0E;
    179E : FB;
    179F : 05;
    17A0 : 15;
    17A1 : FA;
    17A2 : F3;
    17A3 : 00;
    17A4 : 0C;
    17A5 : 10;
    17A6 : 0B;
    17A7 : F1;
    17A8 : FB;
    17A9 : 05;
    17AA : 01;
    17AB : FE;
    17AC : FA;
    17AD : 03;
    17AE : EB;
    17AF : 08;
    17B0 : EE;
    17B1 : FD;
    17B2 : FD;
    17B3 : FC;
    17B4 : 02;
    17B5 : F9;
    17B6 : 06;
    17B7 : 00;
    17B8 : E9;
    17B9 : 07;
    17BA : EC;
    17BB : E9;
    17BC : 0D;
    17BD : 01;
    17BE : ED;
    17BF : FC;
    17C0 : EF;
    17C1 : EF;
    17C2 : 06;
    17C3 : 00;
    17C4 : F8;
    17C5 : F4;
    17C6 : EC;
    17C7 : F3;
    17C8 : 0E;
    17C9 : F0;
    17CA : F4;
    17CB : 00;
    17CC : FA;
    17CD : EA;
    17CE : EB;
    17CF : 05;
    17D0 : EE;
    17D1 : 0E;
    17D2 : 04;
    17D3 : 10;
    17D4 : FF;
    17D5 : F3;
    17D6 : 04;
    17D7 : FA;
    17D8 : 0C;
    17D9 : F5;
    17DA : 03;
    17DB : FE;
    17DC : F2;
    17DD : EC;
    17DE : 00;
    17DF : ED;
    17E0 : E9;
    17E1 : E8;
    17E2 : FA;
    17E3 : F8;
    17E4 : F7;
    17E5 : 04;
    17E6 : 01;
    17E7 : 00;
    17E8 : 01;
    17E9 : F9;
    17EA : 0B;
    17EB : F1;
    17EC : 07;
    17ED : F0;
    17EE : 0C;
    17EF : 06;
    17F0 : 03;
    17F1 : F9;
    17F2 : 01;
    17F3 : FF;
    17F4 : F0;
    17F5 : E7;
    17F6 : 07;
    17F7 : EE;
    17F8 : FD;
    17F9 : FB;
    17FA : F2;
    17FB : 0B;
    17FC : EB;
    17FD : ED;
    17FE : E9;
    17FF : 04;
    1800 : 2F;
    1801 : 33;
    1802 : 0C;
    1803 : E2;
    1804 : 23;
    1805 : 0B;
    1806 : 13;
    1807 : 20;
    1808 : C6;
    1809 : E7;
    180A : 1D;
    180B : 06;
    180C : 27;
    180D : 57;
    180E : 1F;
    180F : 12;
    1810 : D7;
    1811 : EF;
    1812 : CA;
    1813 : B6;
    1814 : 09;
    1815 : FE;
    1816 : 06;
    1817 : DE;
    1818 : F1;
    1819 : ED;
    181A : E6;
    181B : EE;
    181C : 11;
    181D : F2;
    181E : F0;
    181F : 13;
    1820 : EB;
    1821 : 07;
    1822 : F2;
    1823 : 29;
    1824 : E9;
    1825 : F9;
    1826 : 1F;
    1827 : 1E;
    1828 : F0;
    1829 : F5;
    182A : F3;
    182B : D9;
    182C : D3;
    182D : DC;
    182E : 20;
    182F : 14;
    1830 : F7;
    1831 : EC;
    1832 : DE;
    1833 : E9;
    1834 : 0E;
    1835 : 14;
    1836 : F6;
    1837 : 15;
    1838 : E1;
    1839 : DB;
    183A : 07;
    183B : 20;
    183C : 31;
    183D : 12;
    183E : 00;
    183F : E9;
    1840 : 0C;
    1841 : 08;
    1842 : FE;
    1843 : EA;
    1844 : 13;
    1845 : 1A;
    1846 : 07;
    1847 : D4;
    1848 : E7;
    1849 : 0B;
    184A : 0A;
    184B : E7;
    184C : 38;
    184D : 1D;
    184E : 00;
    184F : 20;
    1850 : 09;
    1851 : 0C;
    1852 : 20;
    1853 : 29;
    1854 : E5;
    1855 : CD;
    1856 : F1;
    1857 : 01;
    1858 : EC;
    1859 : DF;
    185A : EE;
    185B : 34;
    185C : 2C;
    185D : 2C;
    185E : 40;
    185F : 6A;
    1860 : 20;
    1861 : 19;
    1862 : 04;
    1863 : FC;
    1864 : 09;
    1865 : 12;
    1866 : FB;
    1867 : 01;
    1868 : 0F;
    1869 : 13;
    186A : 0C;
    186B : F7;
    186C : 03;
    186D : 0B;
    186E : 19;
    186F : F2;
    1870 : FD;
    1871 : 1C;
    1872 : 13;
    1873 : 1A;
    1874 : F0;
    1875 : 06;
    1876 : FE;
    1877 : D4;
    1878 : 15;
    1879 : 38;
    187A : 02;
    187B : FC;
    187C : 1F;
    187D : 31;
    187E : 26;
    187F : 42;
    1880 : EE;
    1881 : F9;
    1882 : E5;
    1883 : EB;
    1884 : 0B;
    1885 : 24;
    1886 : 18;
    1887 : DD;
    1888 : F9;
    1889 : 07;
    188A : F0;
    188B : E7;
    188C : 08;
    188D : E6;
    188E : 0C;
    188F : 1D;
    1890 : D7;
    1891 : CD;
    1892 : C0;
    1893 : C4;
    1894 : FC;
    1895 : FC;
    1896 : E8;
    1897 : E1;
    1898 : F2;
    1899 : F7;
    189A : FC;
    189B : F6;
    189C : 1A;
    189D : 1D;
    189E : 0D;
    189F : FF;
    18A0 : 35;
    18A1 : 17;
    18A2 : 17;
    18A3 : 09;
    18A4 : 29;
    18A5 : F8;
    18A6 : 1F;
    18A7 : 24;
    18A8 : 2C;
    18A9 : E7;
    18AA : F0;
    18AB : FF;
    18AC : D2;
    18AD : CB;
    18AE : D0;
    18AF : DA;
    18B0 : FA;
    18B1 : F1;
    18B2 : 05;
    18B3 : D9;
    18B4 : F3;
    18B5 : EA;
    18B6 : F1;
    18B7 : E9;
    18B8 : E7;
    18B9 : E4;
    18BA : FE;
    18BB : EE;
    18BC : 16;
    18BD : 1F;
    18BE : 1B;
    18BF : 27;
    18C0 : FC;
    18C1 : 00;
    18C2 : F3;
    18C3 : FD;
    18C4 : E0;
    18C5 : 04;
    18C6 : E0;
    18C7 : EC;
    18C8 : E2;
    18C9 : F7;
    18CA : D9;
    18CB : F1;
    18CC : 1F;
    18CD : 24;
    18CE : 14;
    18CF : 25;
    18D0 : 03;
    18D1 : E9;
    18D2 : DF;
    18D3 : 00;
    18D4 : FA;
    18D5 : ED;
    18D6 : 05;
    18D7 : 0E;
    18D8 : F9;
    18D9 : 18;
    18DA : 20;
    18DB : 16;
    18DC : 1D;
    18DD : 00;
    18DE : 06;
    18DF : 0D;
    18E0 : D9;
    18E1 : 02;
    18E2 : 00;
    18E3 : 05;
    18E4 : 0E;
    18E5 : F8;
    18E6 : 0B;
    18E7 : 15;
    18E8 : 38;
    18E9 : 21;
    18EA : 29;
    18EB : 0D;
    18EC : 1E;
    18ED : 18;
    18EE : 10;
    18EF : FC;
    18F0 : F9;
    18F1 : E7;
    18F2 : F0;
    18F3 : D9;
    18F4 : 3A;
    18F5 : 21;
    18F6 : 03;
    18F7 : 01;
    18F8 : 0C;
    18F9 : F3;
    18FA : 04;
    18FB : F7;
    18FC : 14;
    18FD : FC;
    18FE : 02;
    18FF : 21;
    1900 : 1D;
    1901 : 1E;
    1902 : 2D;
    1903 : 12;
    1904 : 27;
    1905 : 0F;
    1906 : 08;
    1907 : 0A;
    1908 : 16;
    1909 : 0D;
    190A : 11;
    190B : FB;
    190C : ED;
    190D : FA;
    190E : EB;
    190F : 02;
    1910 : 04;
    1911 : E0;
    1912 : DA;
    1913 : CC;
    1914 : E5;
    1915 : DF;
    1916 : FF;
    1917 : E3;
    1918 : F2;
    1919 : 1D;
    191A : 1F;
    191B : 10;
    191C : 08;
    191D : 19;
    191E : F7;
    191F : 0D;
    1920 : E4;
    1921 : D9;
    1922 : F1;
    1923 : EE;
    1924 : CD;
    1925 : F6;
    1926 : 0D;
    1927 : E9;
    1928 : FD;
    1929 : 02;
    192A : FD;
    192B : E3;
    192C : 08;
    192D : FB;
    192E : 10;
    192F : 10;
    1930 : 1F;
    1931 : 24;
    1932 : 32;
    1933 : 01;
    1934 : 24;
    1935 : 1B;
    1936 : 06;
    1937 : FD;
    1938 : 2C;
    1939 : 1E;
    193A : 00;
    193B : 0C;
    193C : E1;
    193D : FF;
    193E : F6;
    193F : 08;
    1940 : F6;
    1941 : DA;
    1942 : FD;
    1943 : 00;
    1944 : FE;
    1945 : E7;
    1946 : EE;
    1947 : F2;
    1948 : EB;
    1949 : 00;
    194A : FE;
    194B : FB;
    194C : FB;
    194D : 05;
    194E : FB;
    194F : E6;
    1950 : E7;
    1951 : 06;
    1952 : FC;
    1953 : F4;
    1954 : 08;
    1955 : 12;
    1956 : 05;
    1957 : FE;
    1958 : 15;
    1959 : 19;
    195A : 17;
    195B : EA;
    195C : 11;
    195D : 02;
    195E : E2;
    195F : F6;
    1960 : 0A;
    1961 : 16;
    1962 : FA;
    1963 : FF;
    1964 : FD;
    1965 : F9;
    1966 : 17;
    1967 : 18;
    1968 : FD;
    1969 : F9;
    196A : FD;
    196B : 0F;
    196C : E7;
    196D : E8;
    196E : 0B;
    196F : 04;
    1970 : 1C;
    1971 : 04;
    1972 : F3;
    1973 : FD;
    1974 : FD;
    1975 : 02;
    1976 : 02;
    1977 : 03;
    1978 : FA;
    1979 : ED;
    197A : DB;
    197B : DC;
    197C : 0A;
    197D : 02;
    197E : 0A;
    197F : EF;
    1980 : 12;
    1981 : 06;
    1982 : 0F;
    1983 : 03;
    1984 : 16;
    1985 : 0D;
    1986 : 16;
    1987 : DC;
    1988 : 09;
    1989 : 10;
    198A : 07;
    198B : D6;
    198C : FA;
    198D : 0F;
    198E : F0;
    198F : EA;
    1990 : FD;
    1991 : 28;
    1992 : 33;
    1993 : 2A;
    1994 : 0B;
    1995 : 26;
    1996 : 15;
    1997 : 16;
    1998 : 04;
    1999 : 10;
    199A : 03;
    199B : 07;
    199C : 02;
    199D : FC;
    199E : 08;
    199F : 0A;
    19A0 : F0;
    19A1 : BE;
    19A2 : D1;
    19A3 : E5;
    19A4 : 05;
    19A5 : CF;
    19A6 : A0;
    19A7 : AC;
    19A8 : E8;
    19A9 : ED;
    19AA : E4;
    19AB : C1;
    19AC : F6;
    19AD : 29;
    19AE : 1D;
    19AF : 13;
    19B0 : FC;
    19B1 : 13;
    19B2 : 00;
    19B3 : E5;
    19B4 : 22;
    19B5 : 1B;
    19B6 : 29;
    19B7 : FC;
    19B8 : 0B;
    19B9 : 13;
    19BA : 1F;
    19BB : 03;
    19BC : F5;
    19BD : 11;
    19BE : 0E;
    19BF : 10;
    19C0 : 11;
    19C1 : E8;
    19C2 : F9;
    19C3 : F7;
    19C4 : 12;
    19C5 : 0E;
    19C6 : 1B;
    19C7 : 05;
    19C8 : 0C;
    19C9 : F7;
    19CA : 10;
    19CB : 11;
    19CC : F7;
    19CD : F6;
    19CE : 0A;
    19CF : 0C;
    19D0 : 1A;
    19D1 : 28;
    19D2 : 1F;
    19D3 : 3F;
    19D4 : F9;
    19D5 : ED;
    19D6 : 0D;
    19D7 : 0D;
    19D8 : E6;
    19D9 : 08;
    19DA : 09;
    19DB : 02;
    19DC : ED;
    19DD : FB;
    19DE : 13;
    19DF : 08;
    19E0 : 00;
    19E1 : DA;
    19E2 : E0;
    19E3 : E8;
    19E4 : ED;
    19E5 : E8;
    19E6 : F8;
    19E7 : 0A;
    19E8 : D8;
    19E9 : 05;
    19EA : F9;
    19EB : 01;
    19EC : 08;
    19ED : 09;
    19EE : 0C;
    19EF : F9;
    19F0 : EA;
    19F1 : 08;
    19F2 : 23;
    19F3 : 18;
    19F4 : E9;
    19F5 : D9;
    19F6 : 03;
    19F7 : EE;
    19F8 : 08;
    19F9 : 05;
    19FA : EE;
    19FB : F7;
    19FC : 1A;
    19FD : 08;
    19FE : EF;
    19FF : 04;
    1A00 : F5;
    1A01 : F8;
    1A02 : 03;
    1A03 : 0D;
    1A04 : 0B;
    1A05 : FA;
