F8
3D
4B
A4
15
F6
FD
FE
0E
4F
0A
16
DD
02
F8
35
0C
2F
FA
2A
D5
F6
F0
F7
22
EC
EA
C2
3E
F7
B3
D7
C5
CE
F5
46
00
04
14
54
74
F5
46
FA
D5
39
1C
D7
49
B7
D1
45
16
25
3C
DF
2F
F2
1C
C2
F2
EE
E6
4D
22
EA
BA
A6
28
3A
CB
1E
13
1A
29
EF
02
49
10
EC
AF
FA
2E
C2
2C
D7
FA
E7
65
F4
24
05
EF
F2
1A
CD
DB
15
BA
D7
ED
35
C8
10
27
DC
48
09
F2
0B
2A
C9
1F
2F
AF
C6
C2
4C
A5
CB
AB
39
D7
28
14
EA
08
3E
E9
14
F6
0F
3B
13
4D
29
87
BE
8C
D6
F6
BC
41
B5
33
D8
07
CC
01
CF
24
EC
00
34
F6
24
2A
FA
FD
E3
3E
3B
C1
27
E0
FE
08
F9
3C
B4
E2
37
05
CC
D7
14
F8
40
ED
48
E6
F1
2B
CE
97
C1
D3
DA
28
2C
55
38
4C
2D
FB
2C
2B
28
D2
C8
29
F9
05
C3
E8
A9
52
2A
49
05
1C
29
0C
9A
C0
FD
19
40
07
AF
18
ED
1C
39
A6
DB
C8
2D
03
D5
2A
1E
AD
2B
42
37
35
FF
33
14
A9
D0
D7
81
E7
20
DE
09
03
C9
F0
F5
4C
1A
23
C4
F0
43
39
13
09
46
0A
AF
FE
DE
FA
8F
2B
09
3C
29
D9
E2
D4
F3
3E
01
E1
25
AE
FB
27
14
BA
D3
1E
FE
22
30
E1
3C
00
A0
15
E4
D5
D4
25
A8
2F
DF
97
E9
D2
25
DD
04
CB
E7
3B
28
BB
29
F5
33
06
2F
B1
B4
